<unk>	0
<s>	0
</s>	0
<pad>	0
▁,	-3.21666
▁.	-3.33749
s	-3.82
▁the	-4.09466
;	-4.17206
▁&	-4.2157
▁	-4.57425
▁to	-4.61568
apos	-4.68655
▁a	-4.74096
y	-4.75939
▁of	-4.76814
▁là	-4.79664
▁and	-4.83521
▁tôi	-4.91613
▁và	-4.92829
▁một	-4.97642
▁có	-4.98954
▁that	-5.02656
▁I	-5.04145
t	-5.07069
▁in	-5.16785
quot	-5.20988
▁những	-5.23162
▁chúng	-5.24729
▁của	-5.25512
▁is	-5.34134
▁you	-5.36631
i	-5.36983
ing	-5.37069
ed	-5.38855
n	-5.39847
▁it	-5.40719
▁ta	-5.42155
▁không	-5.44068
▁we	-5.51004
▁đó	-5.56467
ng	-5.56477
▁người	-5.57956
▁bạn	-5.58367
▁trong	-5.65658
▁thể	-5.6749
▁And	-5.71243
▁?	-5.71935
▁này	-5.72628
▁đã	-5.73105
▁các	-5.75274
▁thi	-5.76763
▁được	-5.77369
▁với	-5.84526
ly	-5.84809
▁be	-5.87651
▁ra	-5.87924
▁cho	-5.88038
▁--	-5.88371
d	-5.88862
▁Và	-5.91072
m	-5.9144
▁sự	-5.92108
▁làm	-5.99359
▁nó	-6.04199
▁ở	-6.05827
▁was	-6.059
▁mà	-6.06447
▁để	-6.0863
▁về	-6.09681
▁như	-6.11556
▁sẽ	-6.11767
▁for	-6.11819
-	-6.15155
▁with	-6.17783
▁:	-6.19286
▁are	-6.1976
▁điều	-6.20905
▁have	-6.21012
▁thế	-6.21797
▁on	-6.27353
▁khi	-6.29307
▁họ	-6.31886
▁can	-6.32976
▁Tôi	-6.33196
▁nói	-6.34078
▁do	-6.34664
▁So	-6.37398
▁what	-6.39368
▁đến	-6.3943
u	-6.42039
▁phải	-6.43382
▁about	-6.46063
re	-6.4618
▁The	-6.46338
▁rằng	-6.47277
▁gì	-6.48311
▁vào	-6.48438
▁đang	-6.48475
▁việc	-6.4905
▁từ	-6.49068
▁lại	-6.51851
▁thấy	-6.53305
▁rấ	-6.55551
▁cách	-6.55701
▁cả	-6.56434
▁hơn	-6.56589
▁nhiều	-6.59132
▁not	-6.6115
▁all	-6.62257
▁an	-6.63682
▁at	-6.64404
▁thực	-6.64581
▁đầu	-6.64984
▁so	-6.65097
▁con	-6.66494
▁đây	-6.67187
▁học	-6.68988
a	-6.69624
▁khác	-6.69748
▁my	-6.69814
▁like	-6.70808
▁people	-6.71836
▁trên	-6.72202
▁công	-6.72255
▁there	-6.73009
▁one	-6.73608
▁cái	-6.74958
▁vì	-6.75392
▁nào	-6.75393
▁as	-6.75674
▁chỉ	-6.76131
▁biết	-6.76172
▁from	-6.76374
▁Chúng	-6.76672
▁It	-6.76865
▁đi	-6.80549
▁năm	-6.82577
▁our	-6.84098
▁nghĩ	-6.84557
▁thứ	-6.84733
▁thành	-6.86487
▁go	-6.86899
▁but	-6.87246
▁cũng	-6.91668
c	-6.91774
▁nhà	-6.92874
▁just	-6.93434
▁Như	-6.93688
▁số	-6.9411
▁We	-6.94439
cause	-6.94751
▁us	-6.95619
▁bị	-6.95684
▁t	-6.96658
▁quan	-6.96669
▁me	-6.97528
▁muốn	-6.97795
▁But	-6.97989
▁or	-6.97994
▁these	-6.99978
e	-7.00465
▁if	-7.0066
▁mình	-7.01318
▁them	-7.01672
▁know	-7.01738
▁out	-7.01842
very	-7.02597
▁nhất	-7.02726
▁get	-7.03307
▁nhưng	-7.03493
▁1	-7.03947
▁tạo	-7.0424
▁động	-7.05176
▁giới	-7.05271
▁chính	-7.05319
▁up	-7.06794
▁nên	-7.07413
▁when	-7.08229
▁vậy	-7.0878
▁by	-7.08911
o	-7.09225
▁more	-7.09855
ve	-7.1005
▁he	-7.11081
▁see	-7.11772
▁hình	-7.14343
▁had	-7.15554
▁giờ	-7.15779
▁hiện	-7.16032
▁your	-7.17042
▁sống	-7.17221
▁some	-7.17253
▁who	-7.17406
.	-7.17429
▁would	-7.17695
▁tại	-7.17766
▁think	-7.17953
▁nếu	-7.18197
▁nhận	-7.1825
▁how	-7.18833
▁mọ	-7.1904
▁were	-7.19821
▁their	-7.19971
▁cuộc	-7.20995
▁cần	-7.2178
▁hay	-7.21964
▁which	-7.22759
▁tự	-7.23305
▁thì	-7.23647
▁đề	-7.23718
▁want	-7.24105
▁look	-7.24333
▁tất	-7.26735
▁ông	-7.27351
▁N	-7.28042
▁ấy	-7.28062
▁bởi	-7.2832
▁tới	-7.28878
▁bắt	-7.29685
▁tin	-7.3036
▁còn	-7.30375
▁nhìn	-7.30788
▁lớn	-7.31039
▁theo	-7.31221
▁cơ	-7.31662
▁cùng	-7.32122
▁bằng	-7.32381
▁ý	-7.32625
▁cảm	-7.33339
▁tế	-7.3352
▁sau	-7.34123
▁dụng	-7.34437
▁thật	-7.34754
▁lên	-7.34845
▁world	-7.34865
▁gia	-7.35073
▁câu	-7.35315
▁bản	-7.35475
▁qua	-7.35587
▁anh	-7.3603
▁Thi	-7.36744
▁time	-7.36919
▁reall	-7.37015
▁You	-7.37048
▁bộ	-7.37138
▁b	-7.37318
▁sao	-7.37458
▁thời	-7.37541
▁chuyện	-7.3788
▁trở	-7.38175
▁here	-7.3831
p	-7.38328
▁ngày	-7.38879
▁actual	-7.38957
▁nhân	-7.3906
▁other	-7.39094
▁has	-7.39471
▁sinh	-7.39791
es	-7.40589
▁sai	-7.41096
▁way	-7.41823
▁năng	-7.42877
h	-7.43134
▁trước	-7.43546
▁nước	-7.43732
▁phát	-7.43826
▁đổi	-7.44335
▁Nó	-7.44523
▁into	-7.44564
▁toàn	-7.45484
▁could	-7.45708
▁phần	-7.45855
▁nơi	-7.46318
▁thông	-7.47228
▁don	-7.47822
▁tìm	-7.48202
▁nhau	-7.48203
▁mới	-7.48634
▁thay	-7.48655
▁m	-7.48937
▁did	-7.49256
▁years	-7.49472
▁vấn	-7.49993
▁định	-7.50119
▁Now	-7.50402
▁ch	-7.50636
▁will	-7.50739
▁C	-7.51244
▁now	-7.51301
▁hệ	-7.5143
▁then	-7.51462
▁trường	-7.51794
▁nhiên	-7.52231
▁sử	-7.52367
▁tính	-7.53106
▁things	-7.53108
▁where	-7.53703
▁trình	-7.53996
▁say	-7.54315
▁Đâ	-7.5452
▁tốt	-7.54861
▁tưởng	-7.55086
▁make	-7.55663
▁kết	-7.55673
▁B	-7.56234
▁vật	-7.57277
▁hàng	-7.57932
▁lý	-7.57935
▁T	-7.58759
▁hỏi	-7.58902
▁Bạn	-7.60615
▁máy	-7.6156
▁ảnh	-7.61671
nh	-7.62252
▁hợp	-7.63223
er	-7.63387
▁Đó	-7.63807
▁no	-7.63918
▁mặt	-7.6448
▁every	-7.64753
▁tiếp	-7.65545
▁hành	-7.65609
▁nữa	-7.66313
en	-7.66348
▁than	-7.66389
▁kinh	-7.6641
▁start	-7.66532
▁work	-7.6661
▁take	-7.67259
▁gian	-7.67285
▁thức	-7.67564
▁hội	-7.67587
▁thiết	-7.68329
▁rồi	-7.68649
▁cô	-7.6911
▁xem	-7.69411
▁liệu	-7.69425
hose	-7.69556
▁vị	-7.69561
▁trọng	-7.69952
▁hoá	-7.70045
▁something	-7.70548
▁độ	-7.70557
▁thích	-7.70612
▁two	-7.70685
▁right	-7.71113
▁need	-7.7145
▁đồng	-7.72484
▁much	-7.72948
▁giải	-7.73112
▁first	-7.74304
▁trẻ	-7.7535
▁hai	-7.75545
▁lượng	-7.75549
▁call	-7.75572
lso	-7.75902
▁bấ	-7.7619
▁He	-7.76213
going	-7.77079
▁thường	-7.7727
▁đều	-7.78178
▁quá	-7.78644
▁tiên	-7.78787
▁Một	-7.78951
▁đối	-7.79431
▁over	-7.7945
▁sáng	-7.79499
▁life	-7.80528
▁talk	-7.80622
▁hiểu	-7.8091
▁she	-7.81425
▁quả	-7.81449
▁nay	-7.81561
▁tâm	-7.81603
▁back	-7.82142
▁loại	-7.82163
▁giống	-7.8241
▁In	-7.82574
▁got	-7.82607
▁lần	-7.82662
▁Vì	-7.82727
▁thing	-7.82896
▁cứu	-7.83287
▁kind	-7.83738
▁bao	-7.8407
▁bệnh	-7.84116
▁thống	-7.84188
▁lot	-7.84423
▁little	-7.8476
▁ai	-7.85199
▁viên	-7.85568
▁his	-7.86606
▁Vậ	-7.87066
▁That	-7.87259
▁most	-7.87358
▁nghệ	-7.8739
▁điểm	-7.87907
▁tr	-7.8808
▁nghĩa	-7.88293
▁gọi	-7.88437
ll	-7.88493
▁Có	-7.88505
in	-7.8895
▁M	-7.89353
▁nhỏ	-7.89481
▁A	-7.8962
▁mô	-7.89626
▁S	-7.89807
▁What	-7.89974
▁show	-7.90521
▁hoàn	-7.911
▁n	-7.91519
▁only	-7.91572
▁Họ	-7.91916
▁đưa	-7.9232
▁even	-7.92432
▁nghiệm	-7.93292
▁vẫ	-7.93961
▁tác	-7.94135
▁đường	-7.94363
▁new	-7.9537
▁xả	-7.95407
▁many	-7.96245
▁cố	-7.96424
ies	-7.96612
▁khoả	-7.96716
▁any	-7.97247
▁good	-7.97549
▁thuật	-7.98123
▁c	-7.9813
▁different	-7.98323
▁bên	-7.98381
tương	-7.98542
▁biệt	-7.98577
▁dùng	-7.98724
▁giá	-7.9874
▁dân	-7.98742
▁đại	-7.99026
▁dự	-7.99058
▁hoặc	-7.99068
▁change	-7.99309
▁chiế	-7.99885
▁Đ	-8.00089
▁her	-8.00727
▁triển	-8.00744
▁lúc	-8.00915
▁chuyển	-8.00959
▁diễn	-8.01431
hững	-8.01527
▁use	-8.01576
▁từng	-8.01699
▁through	-8.02196
▁trị	-8.02595
▁quyết	-8.02725
▁does	-8.02874
▁cao	-8.0334
▁nghe	-8.03445
▁em	-8.03613
▁ăn	-8.04566
▁tuyệt	-8.0524
around	-8.05469
▁mỗi	-8.05562
▁cầu	-8.05784
▁Điề	-8.05901
▁10	-8.06211
▁There	-8.06233
▁kế	-8.06356
▁lực	-8.06847
▁chất	-8.07126
▁phụ	-8.07518
▁khá	-8.0765
▁th	-8.08495
on	-8.09097
▁mean	-8.09274
▁lời	-8.0969
▁giáo	-8.09853
▁giúp	-8.10226
▁đất	-8.10288
▁Nế	-8.10336
▁cá	-8.10508
ắc	-8.10622
▁ơn	-8.10971
▁down	-8.11098
▁trung	-8.11817
▁hã	-8.12255
▁give	-8.12501
▁bảo	-8.12688
▁di	-8.1275
▁nữ	-8.12836
▁khả	-8.13038
▁being	-8.13232
▁tiến	-8.13272
▁hết	-8.13438
▁phòng	-8.1363
▁nghiên	-8.13872
▁2	-8.13943
▁chưa	-8.14169
▁tình	-8.14219
▁liên	-8.14471
▁xuất	-8.14559
▁xe	-8.14624
▁mang	-8.1531
▁same	-8.1553
▁Well	-8.15655
▁thu	-8.15952
▁come	-8.16461
▁phân	-8.16464
▁Anh	-8.16781
▁tranh	-8.16876
▁l	-8.16931
▁đơn	-8.17107
▁bài	-8.17258
▁não	-8.17355
▁truyền	-8.17456
▁tập	-8.1748
▁tuổi	-8.1782
day	-8.1785
▁đúng	-8.17914
▁phương	-8.18059
▁khoa	-8.18076
▁điện	-8.18106
▁đ	-8.18108
▁bình	-8.18263
▁sản	-8.1846
▁đặt	-8.1871
▁day	-8.19011
▁tượng	-8.19128
▁Khi	-8.19201
▁biến	-8.19225
▁Các	-8.19615
al	-8.19706
▁tiền	-8.2016
▁try	-8.20221
▁giữa	-8.20252
▁yêu	-8.20292
▁human	-8.20491
▁If	-8.20567
▁tiếng	-8.20902
▁tell	-8.21227
▁three	-8.2197
one	-8.22743
▁trả	-8.22746
▁ngay	-8.23053
▁great	-8.23594
▁Không	-8.24171
▁thú	-8.2445
▁20	-8.2471
▁lấy	-8.25304
▁part	-8.25383
▁put	-8.25494
▁doing	-8.25545
▁!	-8.2573
▁3	-8.26052
▁xã	-8.26331
▁gần	-8.26392
▁trí	-8.26534
▁Tro	-8.26626
▁bỏ	-8.26715
▁vi	-8.26799
▁hoạt	-8.2708
▁g	-8.27446
▁well	-8.27914
▁chiến	-8.28095
▁sách	-8.28316
▁đáng	-8.28452
▁xâ	-8.29009
▁phẩm	-8.29267
▁thân	-8.29515
▁pháp	-8.29652
▁cứ	-8.29801
▁hiệu	-8.2983
▁khó	-8.30006
▁cuối	-8.30113
▁đời	-8.30515
▁chủ	-8.30817
▁why	-8.30853
▁dụ	-8.30893
▁chơi	-8.30981
▁real	-8.31003
▁fact	-8.31383
▁percent	-8.31387
▁V	-8.31425
▁mất	-8.32098
▁minh	-8.32235
▁sức	-8.32243
ây	-8.32463
▁year	-8.32797
▁own	-8.3287
▁kể	-8.3288
▁made	-8.32967
▁p	-8.33376
▁thậ	-8.33617
▁Mỹ	-8.33694
▁bee	-8.33748
ther	-8.33805
▁bé	-8.34208
▁tay	-8.34296
▁ba	-8.34567
▁đồ	-8.34578
▁mạnh	-8.34582
▁child	-8.34721
▁chí	-8.34952
▁...	-8.35163
l	-8.35258
▁find	-8.35486
▁nghiệp	-8.35533
▁create	-8.35715
▁may	-8.35741
▁ngoài	-8.35772
▁khí	-8.36057
▁ít	-8.36133
▁dẫn	-8.3614
r	-8.363
▁đấy	-8.36621
▁lập	-8.36689
▁tài	-8.36741
▁ask	-8.36887
▁loài	-8.3741
▁kỳ	-8.3771
▁bức	-8.37781
▁tinh	-8.38503
▁luôn	-8.38817
▁should	-8.38918
▁vô	-8.38957
▁hạn	-8.38998
▁happen	-8.39668
▁dựng	-8.39697
▁brain	-8.39712
▁-	-8.39766
▁tiêu	-8.39829
▁văn	-8.39994
g	-8.40354
▁tên	-8.40433
▁cộng	-8.40832
▁idea	-8.4099
▁âm	-8.41068
▁chứng	-8.41312
▁tử	-8.42092
▁important	-8.42253
▁phố	-8.42465
▁hướng	-8.42728
▁nhạc	-8.43321
▁thought	-8.43769
▁Thank	-8.43967
▁giả	-8.44122
▁thử	-8.44357
▁Hã	-8.44419
1	-8.44777
▁viết	-8.45139
▁đâu	-8.45358
▁chức	-8.45391
▁bà	-8.45405
▁let	-8.4543
▁nguyên	-8.45474
▁love	-8.45481
▁kiến	-8.45506
▁kh	-8.45511
▁quốc	-8.45667
▁last	-8.46072
▁ứng	-8.46273
▁turn	-8.46275
▁vời	-8.4635
▁tư	-8.46361
able	-8.46381
▁thị	-8.46384
▁nề	-8.46474
▁chế	-8.46709
▁chọn	-8.46798
ánh	-8.47034
▁quyền	-8.47069
▁after	-8.47338
▁giản	-8.47474
▁D	-8.47476
▁đặc	-8.47609
other	-8.47704
▁big	-8.4799
▁bào	-8.48721
▁mạng	-8.48839
▁chết	-8.48925
▁khu	-8.49052
▁cấp	-8.49118
▁suy	-8.49304
▁end	-8.49363
▁phá	-8.4944
▁triệu	-8.49591
▁Be	-8.49631
▁tăng	-8.49761
▁How	-8.4984
▁thần	-8.50149
▁đứ	-8.50151
▁xu	-8.50164
▁problem	-8.50176
▁cụ	-8.50298
▁đá	-8.50344
▁before	-8.50486
▁đạo	-8.50625
▁might	-8.50693
ông	-8.50768
▁course	-8.51478
ch	-8.51491
▁help	-8.51726
▁lẽ	-8.52017
▁sĩ	-8.52531
▁khỏ	-8.52546
went	-8.52706
▁live	-8.53131
▁him	-8.53388
▁never	-8.53615
▁TED	-8.53655
▁đánh	-8.53958
▁mẹ	-8.54124
▁vụ	-8.5415
▁example	-8.54381
▁better	-8.54455
▁màu	-8.54627
▁gặp	-8.54675
▁tháng	-8.54743
▁Thế	-8.54962
▁dưới	-8.55035
▁off	-8.55101
▁story	-8.55673
▁still	-8.5569
▁xác	-8.56237
▁xuống	-8.56429
▁chút	-8.56518
▁able	-8.57017
▁án	-8.5703
▁H	-8.5715
▁gắng	-8.5777
▁learn	-8.57823
▁khiế	-8.57989
▁few	-8.58212
▁bit	-8.58596
ren	-8.58735
▁When	-8.58793
▁phép	-8.58892
ắp	-8.59115
▁nhóm	-8.59136
▁long	-8.59207
▁dịch	-8.59275
▁mở	-8.59281
▁quanh	-8.59585
▁L	-8.59874
▁came	-8.60003
▁vực	-8.60035
▁point	-8.60236
▁dữ	-8.60338
▁system	-8.60562
▁bay	-8.60601
▁next	-8.60722
iểu	-8.60794
▁k	-8.60812
▁trò	-8.60905
▁chia	-8.61006
▁together	-8.61437
▁thêm	-8.6166
ally	-8.62126
▁place	-8.62346
▁each	-8.62431
▁thuyết	-8.62432
▁duy	-8.6244
▁mức	-8.62599
▁tổ	-8.62641
▁nhanh	-8.62668
▁question	-8.63092
▁đàn	-8.63223
▁xa	-8.63549
▁dạng	-8.63566
▁million	-8.63791
▁gây	-8.63807
▁rõ	-8.63853
tham	-8.63859
▁cực	-8.63865
▁between	-8.6409
▁vọng	-8.64183
▁New	-8.64469
▁ago	-8.64852
▁nguồn	-8.65291
▁vùng	-8.65708
▁quay	-8.65924
▁dù	-8.65969
▁design	-8.66217
▁cảnh	-8.66268
▁R	-8.66358
▁đẹp	-8.66508
▁found	-8.66586
body	-8.66679
▁báo	-8.66682
▁sort	-8.66758
ity	-8.66828
▁tục	-8.66907
▁again	-8.67512
▁giác	-8.67845
▁believe	-8.67902
▁sát	-8.68332
▁dễ	-8.68489
out	-8.68524
▁càng	-8.68533
▁data	-8.68583
▁đủ	-8.68737
▁ví	-8.68758
▁cây	-8.69561
▁play	-8.69683
▁sợ	-8.69852
▁trang	-8.69921
▁nhớ	-8.69996
▁vũ	-8.70011
▁phía	-8.70088
▁phim	-8.70217
▁30	-8.70264
▁become	-8.70419
▁cell	-8.70437
▁hưởng	-8.70674
▁đoạn	-8.71124
▁understand	-8.71599
▁thư	-8.71891
▁women	-8.71957
▁kiểm	-8.7239
▁trái	-8.72412
▁&#9	-8.72476
▁chú	-8.7248
▁&#93;	-8.72736
▁thương	-8.73199
▁U	-8.73201
▁Quốc	-8.73523
▁bố	-8.73558
▁kì	-8.73599
▁water	-8.7376
▁Tạ	-8.74205
▁dài	-8.74225
▁school	-8.74549
▁vòng	-8.7462
ầm	-8.74999
▁ngữ	-8.75028
▁luận	-8.75109
▁too	-8.75456
▁phản	-8.75536
▁light	-8.75644
ân	-8.75751
▁chẳ	-8.75773
▁done	-8.7586
ting	-8.75944
▁đôi	-8.76422
▁Trung	-8.76462
hôm	-8.76587
▁Cả	-8.76666
selve	-8.76904
▁đầy	-8.76994
▁dục	-8.77698
▁50	-8.77908
▁technology	-8.77911
▁bâ	-8.78034
▁lợi	-8.78088
▁video	-8.78324
ăm	-8.78423
▁four	-8.78577
▁Do	-8.78618
▁kia	-8.78736
▁giảm	-8.79298
ất	-8.79467
▁thuốc	-8.79764
▁person	-8.79833
▁always	-8.79844
▁second	-8.79997
▁vừ	-8.80146
▁kiếm	-8.80226
▁dàn	-8.80293
▁Cá	-8.80407
▁chân	-8.80653
▁money	-8.80875
▁tích	-8.80883
▁trăm	-8.81196
▁thôi	-8.81406
▁ever	-8.81739
ce	-8.82556
▁đình	-8.82975
ok	-8.83038
▁whole	-8.83313
▁bước	-8.83475
▁lai	-8.83744
▁giao	-8.83811
▁feel	-8.83936
▁power	-8.84094
▁Người	-8.8413
▁working	-8.84752
▁sâu	-8.84827
▁experience	-8.85086
▁ty	-8.85093
▁toán	-8.85664
▁away	-8.85773
▁guy	-8.859
▁Th	-8.85977
▁sư	-8.8609
▁trời	-8.86154
▁trụ	-8.86431
▁tồn	-8.86493
▁information	-8.86694
▁reason	-8.86786
▁diện	-8.86799
▁trải	-8.86881
▁quy	-8.86905
▁4	-8.87079
▁rộng	-8.87496
▁chi	-8.87568
▁giữ	-8.87573
▁100	-8.87796
▁country	-8.87805
▁phục	-8.87811
▁My	-8.87869
▁thanh	-8.88107
▁lã	-8.88133
▁home	-8.88286
▁nối	-8.88415
▁old	-8.88482
▁địa	-8.8871
▁đoán	-8.88712
▁kids	-8.88838
▁lòng	-8.8886
▁đô	-8.88987
ion	-8.89083
▁thuộc	-8.89128
▁riêng	-8.89221
▁vệ	-8.89439
▁tạp	-8.89543
▁Bở	-8.89776
▁She	-8.89815
▁mắt	-8.90071
▁mục	-8.90186
ld	-8.90412
▁phủ	-8.90564
ương	-8.90638
▁nổi	-8.90709
▁đứng	-8.90713
▁dạy	-8.90759
▁thí	-8.90926
▁vẻ	-8.91087
▁đạt	-8.91186
▁five	-8.91846
▁căn	-8.92033
▁Internet	-8.9213
▁kỹ	-8.92132
▁man	-8.92213
▁thúc	-8.92215
▁luật	-8.92235
▁food	-8.92244
▁lệ	-8.92383
▁sẻ	-8.92458
▁tố	-8.92528
▁v	-8.93097
▁mẫu	-8.9319
▁per	-8.93333
▁tối	-8.93451
▁la	-8.93509
▁case	-8.93582
▁tá	-8.93742
▁project	-8.93787
▁lịch	-8.93946
making	-8.94053
▁bàn	-8.94569
▁E	-8.94775
▁picture	-8.94801
▁đọc	-8.94919
▁small	-8.94969
▁space	-8.95184
▁building	-8.95203
▁5	-8.95267
▁lớp	-8.95344
ic	-8.9538
coming	-8.95705
▁One	-8.95934
▁kỷ	-8.96003
▁health	-8.96329
▁yếu	-8.96333
▁moment	-8.96658
▁future	-8.9699
▁everything	-8.97552
▁develop	-8.97676
▁vui	-8.97713
▁khoẻ	-8.97881
▁high	-8.98089
▁number	-8.98172
▁tiết	-8.98234
▁chương	-8.98276
est	-8.9829
▁ngồi	-8.98441
▁chạy	-8.98553
ằm	-8.98701
▁phí	-8.98759
▁Là	-8.98949
▁best	-8.99194
▁gái	-8.99231
▁less	-8.99447
▁cuốn	-8.99459
▁No	-8.99475
▁phút	-8.99538
quite	-8.99666
ever	-8.99677
▁cậu	-8.99683
▁thinking	-8.99808
▁trợ	-8.99923
▁K	-8.99995
▁Phi	-9.00103
▁mối	-9.00155
▁form	-9.00234
▁Wh	-9.00347
▁da	-9.00578
▁chắn	-9.00711
▁hard	-9.0078
th	-9.00875
▁buổi	-9.00967
▁sắc	-9.00996
▁social	-9.01089
▁Thậ	-9.01115
▁hầu	-9.01639
▁bring	-9.01641
▁enough	-9.01751
▁suốt	-9.01776
▁d	-9.01808
▁left	-9.02333
▁answer	-9.0245
us	-9.02475
▁kiện	-9.02495
▁un	-9.0254
▁biển	-9.02919
▁trúc	-9.03058
▁open	-9.03385
▁15	-9.0357
▁basic	-9.03574
▁energy	-9.03635
▁chung	-9.0364
▁For	-9.03757
▁group	-9.04129
▁ké	-9.04215
▁mua	-9.04354
▁ngôn	-9.04367
▁doanh	-9.04474
▁These	-9.04525
▁hoà	-9.05061
▁kiểu	-9.05084
▁tỉ	-9.05493
▁Vâng	-9.05536
▁thiên	-9.05635
aybe	-9.05655
▁process	-9.05793
▁sense	-9.05852
▁tra	-9.05936
k	-9.05952
▁ngạc	-9.05957
▁cửa	-9.06098
▁ng	-9.06203
▁sở	-9.06278
▁lives	-9.06447
--	-9.06479
▁body	-9.06487
▁cánh	-9.0707
▁xúc	-9.07362
▁xét	-9.07423
▁vậ	-9.07458
▁lạ	-9.07514
▁khám	-9.07602
▁al	-9.07613
▁face	-9.07907
▁ràng	-9.07993
▁probabl	-9.081
▁lâu	-9.08172
▁thoại	-9.08224
▁tuần	-9.08231
▁bán	-9.08327
▁comes	-9.08343
▁G	-9.08389
▁hand	-9.08392
▁Sau	-9.08589
▁countries	-9.08596
▁hiểm	-9.08845
▁hồi	-9.09374
▁its	-9.09448
▁science	-9.09476
▁job	-9.09596
▁grow	-9.0985
▁dollars	-9.09864
▁ngô	-9.10092
▁room	-9.10158
▁business	-9.10234
▁cấu	-9.10256
▁Let	-9.10452
▁nhiệm	-9.10478
▁simple	-9.10522
▁keep	-9.10619
S	-9.10672
▁interesting	-9.11352
▁phức	-9.11501
▁image	-9.11557
ể	-9.11617
▁build	-9.11651
▁kích	-9.11759
▁r	-9.11788
▁cung	-9.12283
▁men	-9.12586
▁move	-9.12651
▁chụp	-9.12664
▁chuyên	-9.12684
▁nhập	-9.12789
cross	-9.13035
retty	-9.13609
▁lí	-9.13662
▁large	-9.13814
▁Tấ	-9.13857
▁trạ	-9.13948
▁bóng	-9.14071
▁else	-9.14221
ness	-9.14401
▁York	-9.14515
▁xin	-9.14521
self	-9.14555
▁thái	-9.14757
▁kẻ	-9.14759
▁billion	-9.14764
▁cạnh	-9.14887
▁such	-9.15019
▁allow	-9.15565
▁under	-9.15744
ers	-9.16015
amp	-9.16131
▁mind	-9.16192
▁viện	-9.16214
▁piece	-9.1624
▁chứ	-9.16286
▁độc	-9.16349
▁đa	-9.16503
▁ghi	-9.16564
▁băng	-9.16668
▁hữu	-9.16751
▁saw	-9.16925
▁half	-9.17116
▁stuff	-9.17156
ment	-9.17275
le	-9.17431
▁chỗ	-9.17438
▁ngành	-9.17472
▁language	-9.17699
ự	-9.17835
ation	-9.17907
▁40	-9.17939
▁seem	-9.17974
▁inside	-9.1803
▁trưởng	-9.18255
▁dung	-9.18343
▁hoạ	-9.18368
▁khủng	-9.18657
▁vẽ	-9.18662
▁living	-9.18671
ăn	-9.18803
ĩ	-9.19032
▁side	-9.19129
▁ích	-9.19154
▁care	-9.19188
▁lo	-9.19205
▁model	-9.19508
▁family	-9.19624
▁Cô	-9.19957
▁name	-9.20143
▁hoa	-9.20206
ận	-9.20231
▁times	-9.20358
▁anything	-9.20466
▁makes	-9.20517
▁far	-9.20522
▁chuẩn	-9.20603
▁bác	-9.20839
▁quý	-9.20883
▁week	-9.20903
▁phúc	-9.20905
iễn	-9.21039
▁Độ	-9.21162
▁khăn	-9.21209
▁thiếu	-9.21392
▁car	-9.2146
▁All	-9.21554
▁chịu	-9.2169
▁complete	-9.21792
▁student	-9.22011
▁share	-9.22018
▁later	-9.22225
▁hề	-9.22298
▁am	-9.22432
▁lắng	-9.22439
▁xanh	-9.2267
▁run	-9.22741
▁set	-9.22742
▁tấm	-9.22752
▁while	-9.22797
▁As	-9.22856
▁tệ	-9.23198
▁niệm	-9.23299
▁wrong	-9.23299
▁ban	-9.23346
▁particular	-9.23588
▁cha	-9.23618
▁phạm	-9.23732
▁nhiêu	-9.23735
▁tức	-9.23773
▁whe	-9.23984
▁trai	-9.24006
▁single	-9.24024
▁book	-9.24704
▁watch	-9.24765
▁đau	-9.2478
▁sắp	-9.2494
yet	-9.25009
▁hơi	-9.25051
▁áp	-9.25142
▁government	-9.25217
▁Giờ	-9.2563
▁global	-9.2589
▁music	-9.25952
▁happens	-9.26204
▁Thực	-9.26224
▁age	-9.26276
ọi	-9.26294
▁hav	-9.26298
▁mặc	-9.26388
▁walk	-9.26448
▁Tr	-9.26736
▁lạc	-9.26832
▁chống	-9.26904
▁thất	-9.27021
▁American	-9.27226
▁xử	-9.2757
▁area	-9.27814
▁đố	-9.27827
▁game	-9.27921
▁control	-9.28073
▁châu	-9.2822
▁hope	-9.28307
▁thousand	-9.28326
▁often	-9.28369
▁bad	-9.28599
▁myself	-9.28917
▁remember	-9.29079
▁close	-9.29559
▁problems	-9.29752
▁certain	-9.29844
▁study	-9.29844
▁lựa	-9.29848
▁trực	-9.29859
▁vượ	-9.29947
▁level	-9.30233
▁imagine	-9.30298
▁line	-9.304
▁matter	-9.30454
▁difference	-9.30621
▁hộ	-9.30868
▁hậu	-9.30926
▁realize	-9.3096
▁bánh	-9.31007
▁cổ	-9.31084
▁computer	-9.31105
▁words	-9.3127
▁ga	-9.31386
▁khổ	-9.31396
▁ca	-9.31565
▁12	-9.3165
▁tổng	-9.32009
▁nội	-9.3202
▁ways	-9.32084
▁dò	-9.32096
▁sure	-9.32114
▁saying	-9.32244
▁possible	-9.32355
▁seen	-9.32501
▁city	-9.32569
▁khắc	-9.32573
▁đội	-9.32788
▁mật	-9.32808
▁xấu	-9.33132
▁tỷ	-9.33156
▁toà	-9.33297
▁community	-9.33444
▁ph	-9.33446
▁gử	-9.33447
▁dần	-9.33459
▁top	-9.3351
▁robot	-9.33625
âu	-9.3365
ầu	-9.33726
▁read	-9.3377
▁nguy	-9.33826
▁once	-9.33921
▁days	-9.33985
▁ẩn	-9.34025
▁tim	-9.34033
▁nothing	-9.34097
▁six	-9.34233
or	-9.34473
▁Con	-9.34494
▁true	-9.34532
▁Africa	-9.34607
▁hứng	-9.34727
▁interest	-9.34809
▁head	-9.34967
▁exact	-9.3505
▁disease	-9.3505
▁thiện	-9.35063
▁both	-9.35266
▁6	-9.35306
▁Earth	-9.35375
▁State	-9.35377
▁Okay	-9.3554
▁hạt	-9.35625
▁19	-9.35762
ần	-9.35851
ên	-9.3598
ấu	-9.36114
▁public	-9.36377
▁individual	-9.36518
▁figure	-9.36543
▁lưu	-9.36689
▁kê	-9.36748
▁research	-9.36797
▁almost	-9.36892
▁danh	-9.36919
ready	-9.3698
mong	-9.37014
▁ideas	-9.3708
▁nhiệt	-9.37179
▁chiều	-9.37231
▁entire	-9.37344
▁test	-9.37504
▁spend	-9.37531
▁Nê	-9.37572
▁amazing	-9.37842
▁issue	-9.38033
▁ô	-9.38282
▁self	-9.3833
▁dầu	-9.3836
▁order	-9.38363
▁couple	-9.38511
▁niề	-9.38517
▁beautiful	-9.38679
▁heart	-9.38897
▁phi	-9.39117
ục	-9.39379
▁tội	-9.39521
▁nghèo	-9.39691
D	-9.39751
▁heard	-9.39995
▁ngoại	-9.4004
▁nạn	-9.40063
▁cận	-9.4042
▁final	-9.40889
▁chá	-9.40909
▁decided	-9.40995
▁kính	-9.41091
▁nghi	-9.4111
▁ung	-9.41168
▁chữa	-9.41209
ấp	-9.41215
▁mù	-9.41324
where	-9.41359
▁patient	-9.4144
▁history	-9.41575
▁Châu	-9.41755
▁đẩ	-9.41777
▁đấu	-9.41779
▁environment	-9.41874
▁dấu	-9.41937
ắm	-9.41979
▁tả	-9.42232
▁hạ	-9.42308
▁Ph	-9.42634
▁universe	-9.42792
▁nỗi	-9.42857
▁cost	-9.42865
▁value	-9.42889
▁house	-9.42925
▁Unite	-9.42925
▁built	-9.42996
▁18	-9.43207
▁art	-9.4323
▁hy	-9.43275
▁khố	-9.43586
▁night	-9.43736
▁Oh	-9.43888
▁thủ	-9.44011
▁stories	-9.44028
▁hát	-9.44051
ăng	-9.44196
▁thách	-9.44233
▁già	-9.44346
▁hundred	-9.44379
▁societ	-9.44522
▁word	-9.44587
▁đen	-9.45182
came	-9.45303
▁education	-9.45362
▁đóng	-9.4537
▁Google	-9.45374
▁giấy	-9.45455
▁tắc	-9.4547
▁Every	-9.45526
▁To	-9.45818
▁ngược	-9.45819
▁khách	-9.45929
▁chữ	-9.45979
▁nuôi	-9.46177
▁months	-9.46316
▁cancer	-9.46358
▁eat	-9.46378
▁25	-9.46559
▁young	-9.46691
▁unti	-9.46754
▁huge	-9.46903
▁bại	-9.47268
▁past	-9.47313
▁follow	-9.47403
▁stop	-9.47541
▁minutes	-9.47747
▁nghị	-9.47771
▁ước	-9.4781
▁Tây	-9.48168
▁though	-9.48255
▁soát	-9.48385
▁chà	-9.48891
▁woman	-9.48946
▁lỗi	-9.49192
▁lĩnh	-9.49298
▁nửa	-9.49301
▁tiện	-9.49305
new	-9.49314
▁nam	-9.4941
▁mơ	-9.49503
▁ngủ	-9.49576
▁Or	-9.49579
▁China	-9.4968
▁hoạch	-9.497
▁80	-9.49809
▁quick	-9.49864
▁quản	-9.49941
▁w	-9.50094
▁friends	-9.50351
▁cư	-9.5043
▁gồm	-9.50436
▁economic	-9.50474
less	-9.50528
▁nhiễm	-9.50614
ry	-9.50669
▁dương	-9.50832
í	-9.50861
▁khiển	-9.51196
▁hear	-9.51284
man	-9.51554
▁sóc	-9.51573
▁focus	-9.5159
▁planet	-9.51632
▁thả	-9.51764
▁cắt	-9.51789
▁200	-9.5204
▁Ta	-9.52369
▁giết	-9.52726
▁team	-9.52761
▁hại	-9.53032
▁thẳng	-9.53036
▁ngờ	-9.53322
▁mov	-9.53408
▁sound	-9.53457
▁quen	-9.53594
▁quân	-9.53704
▁state	-9.53712
▁trừ	-9.53717
▁dây	-9.53741
▁cử	-9.53799
taking	-9.53858
▁leave	-9.53883
▁tàu	-9.53887
▁teacher	-9.53888
stead	-9.54069
▁challenge	-9.54292
▁đích	-9.54475
▁happening	-9.54552
▁works	-9.54657
▁force	-9.54659
▁lưới	-9.54672
▁đông	-9.54701
▁mã	-9.54736
▁nhờ	-9.54873
▁war	-9.54922
▁đức	-9.5495
▁clear	-9.54967
▁experiment	-9.55021
▁Chỉ	-9.55119
▁chiếu	-9.55176
▁11	-9.55206
▁population	-9.5528
▁thấp	-9.553
sang	-9.55347
ấn	-9.55453
ằng	-9.55662
▁mê	-9.55684
▁free	-9.55748
▁hours	-9.55784
▁60	-9.55799
▁nature	-9.55858
▁cười	-9.56073
▁đổ	-9.56195
▁bày	-9.56247
▁niên	-9.56261
▁đêm	-9.5628
▁pay	-9.56449
▁lái	-9.56465
▁qu	-9.56593
▁Hiệ	-9.56803
▁term	-9.56837
▁dàng	-9.56909
2	-9.56927
▁phóng	-9.5699
old	-9.57033
▁khai	-9.57165
▁x	-9.57169
▁khoá	-9.57199
▁sàng	-9.57273
▁ngắn	-9.57669
▁since	-9.5767
▁rối	-9.57674
▁xếp	-9.57677
▁web	-9.57754
▁gốc	-9.57919
▁đo	-9.58036
an	-9.5811
▁kỉ	-9.58317
▁gấp	-9.58721
▁phong	-9.58765
▁stand	-9.58886
▁God	-9.58949
▁mother	-9.58988
▁đem	-9.59097
▁phẫ	-9.591
▁đỡ	-9.59319
ten	-9.59358
ường	-9.59487
▁DNA	-9.59513
rời	-9.59647
▁giây	-9.59946
▁bạo	-9.59949
▁natural	-9.59953
Với	-9.60103
um	-9.60124
▁lắm	-9.60171
▁Ch	-9.602
▁won	-9.6024
▁vai	-9.6033
▁paper	-9.60345
▁questions	-9.60466
against	-9.605
▁hồ	-9.60505
▁America	-9.60728
▁7	-9.60829
▁trách	-9.60983
▁đà	-9.61098
▁front	-9.61148
▁gắn	-9.61159
▁Rồ	-9.61239
▁sometimes	-9.61287
▁must	-9.61389
▁explain	-9.61404
▁thụ	-9.61466
▁India	-9.61589
▁listen	-9.61638
▁cáo	-9.61765
▁places	-9.61775
▁ngàn	-9.6193
▁tù	-9.62055
▁company	-9.62239
▁difficult	-9.62451
▁Bà	-9.62453
ù	-9.62479
▁bốn	-9.62519
▁de	-9.62675
▁đợi	-9.62745
▁HIV	-9.62878
ốc	-9.62898
▁tôn	-9.62962
▁structure	-9.63132
▁lead	-9.63271
▁third	-9.63424
▁nô	-9.63453
▁color	-9.6355
▁outside	-9.6357
ơi	-9.63586
▁bí	-9.63662
haps	-9.63954
▁father	-9.6417
▁hài	-9.642
▁simpl	-9.64256
▁8	-9.64312
▁xuyên	-9.64393
▁powerful	-9.64411
▁kill	-9.64659
ar	-9.6466
▁chị	-9.64797
▁hold	-9.65133
▁nhảy	-9.65313
iếc	-9.65399
gan	-9.65403
▁9	-9.65435
▁oil	-9.65543
ập	-9.65603
▁chuyến	-9.65701
la	-9.65718
▁lộ	-9.65749
▁happy	-9.65919
▁dừng	-9.65932
▁siêu	-9.65932
▁amount	-9.65947
▁Some	-9.66312
▁plant	-9.66313
▁base	-9.66417
ỗi	-9.66558
ẻ	-9.66596
▁full	-9.66614
▁thoả	-9.6665
▁du	-9.66764
▁nghiê	-9.66838
▁chim	-9.66923
▁film	-9.67021
▁P	-9.67039
▁dur	-9.67118
▁discover	-9.6726
▁ký	-9.67485
▁machine	-9.67533
▁thiệ	-9.6754
▁along	-9.67613
▁lao	-9.67674
▁early	-9.67747
▁At	-9.67784
ắt	-9.67861
▁tầng	-9.67928
▁learning	-9.67965
▁đảm	-9.6816
▁song	-9.68165
▁behavior	-9.68452
▁buy	-9.68806
▁air	-9.6883
▁culture	-9.692
▁species	-9.69284
▁hấp	-9.69291
▁tải	-9.69446
▁ảo	-9.69487
▁Ai	-9.6972
▁phổ	-9.69732
▁least	-9.69739
▁risk	-9.69779
▁Tuy	-9.69941
▁black	-9.69982
▁act	-9.7029
▁món	-9.70482
▁Nam	-9.70579
▁lá	-9.70788
▁On	-9.70862
▁market	-9.70869
▁short	-9.70885
▁Việ	-9.71109
▁90	-9.71186
▁gen	-9.7119
▁lồ	-9.71209
ấy	-9.71298
▁feeling	-9.713
▁death	-9.71362
▁program	-9.71363
úng	-9.71431
z	-9.71631
ton	-9.71643
▁middle	-9.71823
▁nhắc	-9.7191
▁rừng	-9.72067
▁camera	-9.72073
▁Cho	-9.72078
▁news	-9.72105
▁OK	-9.72296
▁produce	-9.72308
▁personal	-9.7234
▁view	-9.7252
▁easy	-9.72527
ã	-9.72738
▁poor	-9.73001
▁góc	-9.73004
▁choice	-9.73111
b	-9.73123
▁yourself	-9.73157
▁khở	-9.73215
▁chỉnh	-9.73248
▁wait	-9.73474
▁trù	-9.73642
ability	-9.73725
▁animals	-9.73775
▁thải	-9.73822
▁hút	-9.73951
▁nh	-9.74185
▁local	-9.74195
▁re	-9.7425
▁systems	-9.74255
òn	-9.74257
▁political	-9.74367
▁thơ	-9.74511
▁hộp	-9.74521
behind	-9.74646
▁dream	-9.7467
▁media	-9.74735
▁luyện	-9.74912
▁Được	-9.74933
▁Ba	-9.74976
▁70	-9.75006
▁ổn	-9.75139
▁J	-9.75198
▁nhu	-9.75288
▁seven	-9.75401
▁khuôn	-9.75472
▁object	-9.75607
▁relationship	-9.76131
▁tín	-9.76237
▁save	-9.76278
▁giàu	-9.76344
▁ngâ	-9.76352
▁chuột	-9.7637
▁land	-9.76394
▁cập	-9.76421
▁cà	-9.76541
▁khoản	-9.76713
▁cause	-9.76735
▁speak	-9.76856
▁o	-9.76943
▁coi	-9.77076
▁present	-9.77343
▁đỏ	-9.77363
year	-9.77393
ệt	-9.77558
▁liệt	-9.77617
▁Trá	-9.77621
▁deal	-9.77722
▁compani	-9.77817
▁tấn	-9.77972
▁TV	-9.78155
▁Hoa	-9.78157
▁fel	-9.78182
▁century	-9.7823
▁Go	-9.7826
▁device	-9.78347
▁major	-9.78361
▁size	-9.78482
uyên	-9.78485
▁physical	-9.78597
▁tuyến	-9.78598
▁phận	-9.78617
▁stay	-9.78659
▁thắng	-9.7885
▁câ	-9.7902
▁somebod	-9.79438
▁phone	-9.79454
▁eyes	-9.79478
▁common	-9.79602
▁exist	-9.79634
▁John	-9.7983
▁friend	-9.79833
▁support	-9.79853
▁normal	-9.79863
iều	-9.80128
▁feet	-9.80165
ừng	-9.80285
▁wonderful	-9.80381
▁Chúa	-9.80391
▁doctor	-9.8062
▁access	-9.80631
▁đảo	-9.80644
▁vĩ	-9.80644
▁An	-9.80657
▁pick	-9.80721
▁rest	-9.80855
▁People	-9.80875
▁nặng	-9.80876
▁obvious	-9.80888
iếng	-9.80898
▁safe	-9.8091
▁Từ	-9.80942
▁huỷ	-9.81008
▁hẳn	-9.8112
▁chứa	-9.81389
▁dậy	-9.81389
▁mềm	-9.81398
▁Al	-9.81435
▁sun	-9.81449
K	-9.81569
▁vân	-9.81664
▁spen	-9.81724
▁beginning	-9.81908
▁chố	-9.81942
age	-9.81944
▁fight	-9.81977
▁boy	-9.82174
▁generation	-9.82219
A	-9.8231
▁stage	-9.82345
▁hit	-9.82372
▁David	-9.82439
▁deep	-9.82642
▁mấy	-9.82751
▁drive	-9.8277
ước	-9.83109
▁begin	-9.83209
▁lab	-9.83214
▁pattern	-9.83244
te	-9.83348
▁longer	-9.83377
▁near	-9.83473
▁Bắc	-9.83505
▁mạch	-9.83522
▁Yeah	-9.83734
▁quyển	-9.83734
▁môn	-9.8397
▁complex	-9.83979
▁resource	-9.83998
▁h	-9.84015
▁mẽ	-9.84044
▁chóng	-9.84074
▁send	-9.84205
▁protein	-9.84261
▁điển	-9.84263
ôi	-9.84293
▁canno	-9.84301
▁buộc	-9.84309
▁Công	-9.84407
▁dưỡng	-9.84527
▁máu	-9.8454
hà	-9.84552
▁sóng	-9.84558
▁rate	-9.84717
▁ống	-9.84723
▁eight	-9.84774
▁wonder	-9.84778
▁organization	-9.84818
▁hands	-9.84821
▁write	-9.85118
▁sơ	-9.85161
▁cũ	-9.85239
▁buồn	-9.85281
▁perfect	-9.85326
aid	-9.85338
▁linh	-9.85347
▁màn	-9.85383
▁fear	-9.85384
to	-9.85568
▁condition	-9.85621
▁mắn	-9.85863
▁growth	-9.85911
▁lan	-9.86028
▁Ngà	-9.8618
▁dõi	-9.86404
▁uống	-9.86407
▁service	-9.86419
▁ground	-9.86601
▁loạn	-9.86677
el	-9.86694
▁chờ	-9.86704
land	-9.86725
▁tree	-9.86794
▁khán	-9.86837
▁điên	-9.8686
▁16	-9.8688
▁Kỳ	-9.86948
f	-9.86966
▁tồi	-9.86969
▁Nga	-9.87031
by	-9.87135
▁center	-9.87238
▁fall	-9.87255
ra	-9.87327
▁Thứ	-9.87344
▁add	-9.87379
▁Yes	-9.87442
▁tảng	-9.87541
▁chủng	-9.8768
▁hãi	-9.87712
▁lầm	-9.87856
ữa	-9.88
▁absolute	-9.8804
▁vững	-9.8804
▁impact	-9.88041
▁die	-9.8807
▁parents	-9.88237
▁low	-9.88346
son	-9.88423
▁nấ	-9.89062
giving	-9.89151
▁step	-9.89214
▁góp	-9.89425
▁reach	-9.89429
▁Afghanistan	-9.89705
▁thưởng	-9.89721
▁los	-9.89774
▁arm	-9.89949
▁travel	-9.89985
▁cities	-9.90001
▁solve	-9.90119
▁non	-9.90232
▁sửa	-9.90479
up	-9.90487
▁Liệ	-9.90514
▁tường	-9.90687
▁bang	-9.90785
▁morning	-9.9083
▁movement	-9.90852
ta	-9.91036
▁co	-9.91309
▁treat	-9.91343
▁Our	-9.914
▁tried	-9.91493
▁Can	-9.91743
▁gi	-9.9193
▁carbon	-9.91931
▁knowledge	-9.91994
▁đèn	-9.92024
▁lạnh	-9.9208
▁scale	-9.921
ẩn	-9.92176
▁average	-9.92254
▁14	-9.92338
▁green	-9.92509
▁potential	-9.92557
▁virus	-9.92588
▁ủng	-9.92865
▁mái	-9.92886
▁O	-9.92909
▁notice	-9.92966
▁audience	-9.93409
▁trắng	-9.93409
▁material	-9.93593
▁bảng	-9.93607
▁lẫn	-9.93699
▁tộc	-9.93699
▁tờ	-9.93804
hỏng	-9.93851
▁girl	-9.93875
▁đe	-9.94024
▁needs	-9.94072
▁ngừ	-9.94135
▁F	-9.9417
▁key	-9.94273
▁đỉnh	-9.94285
rought	-9.9436
▁17	-9.94385
▁tổn	-9.94411
▁voice	-9.94459
▁English	-9.94577
▁diệu	-9.94579
▁attention	-9.94582
▁break	-9.94656
▁hi	-9.94729
▁extreme	-9.94871
▁núi	-9.94892
▁W	-9.94955
▁cool	-9.94993
▁sleep	-9.94999
▁Qu	-9.95042
▁expect	-9.9512
▁message	-9.95193
▁opportunity	-9.95233
▁online	-9.95242
▁reality	-9.95255
▁raise	-9.95307
▁strong	-9.95468
▁Đông	-9.95503
▁bigge	-9.9563
▁ma	-9.95631
▁network	-9.95655
▁slow	-9.95773
uổi	-9.95987
▁trì	-9.96313
▁blue	-9.96354
▁innovation	-9.96355
▁chó	-9.96401
▁ei	-9.96449
▁tiểu	-9.96451
▁Just	-9.96519
ary	-9.96542
▁born	-9.96593
credible	-9.96654
▁train	-9.96825
▁animal	-9.96875
▁rơ	-9.96932
ous	-9.96937
▁economy	-9.96954
▁red	-9.97003
▁giọng	-9.97028
▁21	-9.97102
▁bề	-9.97235
▁situation	-9.97256
▁pass	-9.97268
▁field	-9.97324
▁With	-9.9734
▁dead	-9.97549
▁trận	-9.9764
▁áo	-9.97737
▁hảo	-9.9788
▁trồng	-9.97884
▁nice	-9.97889
▁tốn	-9.97919
ẩm	-9.97946
▁tô	-9.98037
▁quên	-9.98094
▁giỏi	-9.98181
▁sitt	-9.98456
ưa	-9.98481
▁protect	-9.98489
N	-9.98586
▁sa	-9.9859
▁toward	-9.98654
▁sudden	-9.98775
▁Right	-9.98777
▁ấn	-9.98803
trao	-9.98838
▁action	-9.98854
▁product	-9.99002
rew	-9.9906
rote	-9.99069
▁kim	-9.99087
▁Hồi	-9.99127
▁studie	-9.9939
▁chạm	-9.99394
hẳng	-9.99444
▁stress	-9.997
▁thù	-9.9978
▁nhé	-9.99801
▁mãi	-9.9981
▁consider	-9.99856
▁molecule	-9.99865
▁vố	-9.99972
▁cỡ	-10.0003
▁cầm	-10.0015
▁khuẩn	-10.0034
▁pull	-10.0035
▁tools	-10.0037
▁nóng	-10.0041
▁bền	-10.0045
▁bật	-10.0063
▁result	-10.0063
▁nghì	-10.0063
▁literal	-10.0082
▁shape	-10.0102
ép	-10.0112
▁tiề	-10.0113
C	-10.0119
▁phấn	-10.0127
▁modern	-10.0127
▁Y	-10.0154
▁sánh	-10.0168
▁eye	-10.0185
▁blood	-10.0191
▁chance	-10.0194
▁approach	-10.02
▁books	-10.0218
▁World	-10.022
▁climate	-10.0221
▁main	-10.0222
▁hôn	-10.0226
▁record	-10.0238
▁Mà	-10.0246
▁plan	-10.0252
▁increase	-10.0252
▁nghỉ	-10.0252
▁thank	-10.0259
ền	-10.0277
▁chấm	-10.0278
▁hospital	-10.0284
▁vợ	-10.0286
▁Đại	-10.0289
▁13	-10.0291
▁general	-10.0304
▁surface	-10.0317
▁Chín	-10.0322
▁hoảng	-10.0328
▁mời	-10.0338
hiển	-10.0339
êu	-10.0346
▁Facebook	-10.0348
ghề	-10.0352
▁fun	-10.0352
▁khích	-10.0359
▁Chinese	-10.038
▁hổ	-10.038
▁runn	-10.0385
▁solution	-10.0387
▁scientists	-10.0389
▁understanding	-10.0393
▁success	-10.0406
▁writing	-10.0412
▁creating	-10.0412
▁quần	-10.0414
ter	-10.0432
▁bottom	-10.0445
▁sign	-10.0446
▁lửa	-10.0446
▁hào	-10.0452
▁measure	-10.0452
▁website	-10.0477
▁điệu	-10.0478
▁vỡ	-10.0478
▁continue	-10.048
ism	-10.0482
▁lố	-10.0488
▁hỗ	-10.05
▁bầ	-10.0503
▁ghế	-10.051
▁smart	-10.051
▁xương	-10.0512
changing	-10.0544
▁Not	-10.0545
▁đừng	-10.0546
ẽ	-10.0552
▁specific	-10.0583
▁connect	-10.0593
▁nổ	-10.0595
▁tách	-10.0601
▁Iran	-10.0625
▁photograph	-10.0635
▁dường	-10.0643
▁phối	-10.065
▁region	-10.0657
▁source	-10.0671
▁track	-10.0687
▁rút	-10.069
▁ice	-10.0698
▁meet	-10.0703
▁khẩu	-10.0709
▁kịch	-10.0709
▁alone	-10.0715
▁South	-10.0719
▁affect	-10.0721
▁chảy	-10.0741
▁biên	-10.0744
▁moral	-10.0745
▁sót	-10.0747
▁sit	-10.0749
ợ	-10.0752
▁teach	-10.0764
▁forward	-10.0767
ine	-10.0769
▁gió	-10.0775
▁baby	-10.0777
▁ones	-10.078
▁cover	-10.0783
▁girls	-10.079
▁fail	-10.0809
▁email	-10.081
▁type	-10.0812
▁thịt	-10.0821
▁ong	-10.0837
▁sớm	-10.0841
▁Where	-10.0846
uỗi	-10.085
▁numbers	-10.0856
▁bè	-10.0861
▁By	-10.0865
▁guess	-10.0875
▁loạt	-10.0875
▁late	-10.0876
▁box	-10.0892
▁development	-10.0892
▁gợ	-10.0892
▁class	-10.0896
▁thoát	-10.0902
▁office	-10.0905
▁California	-10.0909
more	-10.091
▁truth	-10.0913
▁wall	-10.0915
▁table	-10.0916
,000	-10.0932
ùng	-10.0934
cy	-10.0941
▁khứ	-10.0943
▁chậm	-10.0944
▁chồng	-10.0947
▁phiê	-10.0951
▁provide	-10.0968
ma	-10.0979
▁dĩ	-10.0984
▁tàn	-10.0993
ond	-10.1007
ễ	-10.1012
▁sạch	-10.1013
▁essential	-10.1046
▁nâ	-10.1051
▁tắt	-10.1061
▁sex	-10.1073
▁conversation	-10.108
▁giấc	-10.108
▁bi	-10.1095
▁Thu	-10.1097
▁movie	-10.1099
▁soon	-10.1113
ance	-10.1142
ive	-10.1145
▁telling	-10.1148
▁white	-10.1154
▁kid	-10.1177
▁hô	-10.1178
▁fast	-10.1182
▁rich	-10.1183
▁lặp	-10.1187
kay	-10.1199
▁suất	-10.122
▁fly	-10.1223
▁chu	-10.1241
▁asking	-10.1247
▁avail	-10.1254
▁theory	-10.1262
▁effective	-10.1264
▁sea	-10.128
▁suggest	-10.1287
ian	-10.1293
▁Hay	-10.1312
▁ocean	-10.1319
▁quỹ	-10.1325
▁chấ	-10.1325
▁manage	-10.1343
▁cut	-10.1344
▁current	-10.136
▁push	-10.1361
▁Ma	-10.1366
espec	-10.1372
▁Chris	-10.1397
▁games	-10.1413
ially	-10.1413
▁lỗ	-10.1422
▁London	-10.1432
▁industry	-10.1432
incredibly	-10.1432
▁activit	-10.1449
▁khuyế	-10.1455
▁goal	-10.1466
▁easi	-10.1468
▁trưng	-10.1468
▁phê	-10.147
▁Gi	-10.1476
ở	-10.1476
ệp	-10.1485
▁500	-10.1494
▁ngại	-10.1509
▁bờ	-10.1533
▁túi	-10.1545
ảnh	-10.1551
▁page	-10.1557
▁pre	-10.1558
▁worth	-10.156
▁sông	-10.1561
▁met	-10.1561
uộc	-10.1562
▁Bill	-10.1562
▁journey	-10.1576
▁trữ	-10.1577
▁mỏ	-10.1604
▁benefit	-10.1615
▁24	-10.1629
▁nguyện	-10.1649
ie	-10.1661
▁đươ	-10.1667
▁village	-10.1677
▁touch	-10.1679
▁dặm	-10.1685
▁event	-10.1687
▁tán	-10.1689
ia	-10.1703
▁trại	-10.1706
▁vision	-10.1709
▁collect	-10.1718
▁tri	-10.1723
▁thước	-10.1727
▁fish	-10.1729
▁kiệm	-10.1731
▁hole	-10.1733
▁Mặ	-10.1745
ught	-10.175
▁digital	-10.1759
▁equal	-10.1761
ard	-10.1768
T	-10.178
▁favorite	-10.1796
▁Israel	-10.1802
▁waste	-10.1806
▁materials	-10.1815
hắc	-10.1816
▁code	-10.1817
▁dark	-10.1833
▁similar	-10.1846
▁chặ	-10.1848
▁street	-10.185
▁West	-10.1864
▁fundamental	-10.1864
▁response	-10.1871
▁cờ	-10.1872
▁né	-10.1884
ful	-10.1895
õ	-10.1896
▁happiness	-10.1911
gone	-10.1922
▁sell	-10.1935
▁describe	-10.1939
▁sỹ	-10.1946
▁connection	-10.1949
▁Don	-10.1952
▁slide	-10.1963
▁month	-10.1964
x	-10.197
ý	-10.1976
▁direct	-10.198
▁trust	-10.1985
▁Hai	-10.1996
▁lose	-10.2
▁War	-10.2002
▁special	-10.2014
▁AIDS	-10.2021
▁nhẹ	-10.2025
▁San	-10.2043
▁bơi	-10.2053
ào	-10.2054
▁technologi	-10.2058
▁Europe	-10.2059
iêu	-10.2078
▁Cuố	-10.2078
ức	-10.2086
▁fire	-10.2093
▁creative	-10.2097
▁vỏ	-10.2098
M	-10.2099
▁wish	-10.2101
▁nhắn	-10.2111
ành	-10.2141
▁ghép	-10.2141
▁voi	-10.2148
ược	-10.2165
▁scientific	-10.2174
▁thở	-10.2182
▁democracy	-10.2187
▁thăm	-10.2188
▁among	-10.2191
▁cars	-10.2192
▁map	-10.2205
▁fair	-10.2213
▁nhị	-10.2213
▁Bản	-10.2214
▁dã	-10.2215
▁rẻ	-10.2254
▁miles	-10.2259
▁store	-10.2259
▁join	-10.2266
▁recently	-10.227
▁Iraq	-10.2284
▁successful	-10.2299
▁factor	-10.2315
ach	-10.2324
▁vế	-10.2334
▁sounds	-10.2337
▁thảm	-10.2344
▁rules	-10.2353
be	-10.2358
▁nỗ	-10.2364
▁nhật	-10.2369
▁tàng	-10.2375
head	-10.2382
▁post	-10.2404
▁La	-10.2406
▁subject	-10.2408
▁evidence	-10.2408
▁lặng	-10.2409
▁lâ	-10.2414
▁offer	-10.2422
▁yes	-10.2424
▁tai	-10.2427
▁effect	-10.2428
▁rác	-10.2434
▁Đất	-10.2438
▁nation	-10.244
ne	-10.2445
▁position	-10.2455
▁son	-10.2456
ist	-10.2458
▁Em	-10.2464
▁recognize	-10.2468
▁bọn	-10.2471
▁law	-10.2477
ề	-10.2482
▁function	-10.2488
▁sáu	-10.2489
▁putting	-10.2501
▁Are	-10.2522
▁Brazil	-10.2527
▁Nhật	-10.2527
▁memory	-10.2527
▁lọc	-10.2533
▁content	-10.2541
▁tụ	-10.255
▁emotion	-10.2563
▁list	-10.2581
time	-10.2582
▁block	-10.2588
▁nhấ	-10.2589
▁Of	-10.2598
▁First	-10.2607
▁mental	-10.261
▁hùng	-10.261
▁trống	-10.2612
▁tru	-10.262
▁drug	-10.2631
▁transform	-10.2632
▁tend	-10.2637
▁practice	-10.2641
▁bò	-10.2646
▁After	-10.2648
ảo	-10.2651
▁Even	-10.2663
▁đế	-10.2673
side	-10.2675
▁Mexico	-10.2688
ũ	-10.2691
▁medical	-10.2693
▁draw	-10.2695
▁Maybe	-10.2701
▁invent	-10.2718
ũng	-10.2719
▁phiế	-10.2721
I	-10.2729
▁necessar	-10.2729
▁meaning	-10.2732
▁quang	-10.2733
▁concept	-10.2747
▁Paul	-10.2757
▁East	-10.2759
em	-10.2761
▁represent	-10.2768
ate	-10.2785
▁300	-10.2786
▁artist	-10.2788
ro	-10.2799
Đầu	-10.28
▁ưu	-10.2806
▁tròn	-10.2807
▁search	-10.2811
▁Look	-10.2812
▁đẳng	-10.2812
▁nine	-10.2816
▁ngẫ	-10.2825
com	-10.283
▁Bộ	-10.2852
▁doạ	-10.2854
▁ro	-10.2855
▁period	-10.289
▁road	-10.2907
ượng	-10.2911
▁mùi	-10.2923
▁ghé	-10.2929
▁hà	-10.2973
▁crazy	-10.2976
▁Tha	-10.2978
▁đam	-10.2979
▁pain	-10.2993
as	-10.3013
▁software	-10.3018
▁degree	-10.3021
▁choose	-10.3028
et	-10.3032
▁schools	-10.3041
▁onto	-10.3052
▁account	-10.3058
▁female	-10.306
▁Act	-10.307
▁Hà	-10.3076
▁đựng	-10.3076
▁radio	-10.3102
▁results	-10.3102
▁George	-10.3102
▁return	-10.3102
▁thừa	-10.3103
▁require	-10.3119
▁attack	-10.3126
ếp	-10.3129
▁khô	-10.3129
▁thác	-10.3139
ish	-10.3144
▁surprise	-10.3145
▁throw	-10.3145
▁fund	-10.3171
▁tool	-10.3182
▁plastic	-10.3187
▁further	-10.3187
B	-10.3198
▁revolution	-10.3202
▁national	-10.3217
▁đoàn	-10.323
▁Canada	-10.3232
▁spread	-10.3233
▁trial	-10.3236
▁wear	-10.3244
▁Theo	-10.3255
▁Whi	-10.3273
▁lt	-10.3275
▁xứ	-10.3286
ống	-10.3296
▁extraordinar	-10.3316
▁remain	-10.3316
▁GDP	-10.3316
▁role	-10.3317
▁f	-10.3319
▁violence	-10.332
▁leaders	-10.3338
▁quality	-10.3345
▁đắ	-10.3349
how	-10.3356
eo	-10.336
▁blog	-10.336
▁nhuận	-10.3361
▁predict	-10.3368
▁African	-10.3394
▁appear	-10.3403
▁communities	-10.3403
▁faster	-10.3409
▁thang	-10.3414
▁finding	-10.3435
▁Kenya	-10.3444
rước	-10.3446
▁count	-10.3446
▁đạp	-10.3447
▁stick	-10.3478
▁ready	-10.3479
▁adult	-10.349
▁treatment	-10.3492
▁dị	-10.3493
▁Đức	-10.3496
▁mine	-10.3497
▁cross	-10.3498
▁positive	-10.3501
il	-10.3506
▁North	-10.3506
▁Cậ	-10.3509
▁đói	-10.3522
▁expert	-10.3534
▁worse	-10.3534
▁indeed	-10.3535
▁screen	-10.3537
▁mass	-10.3537
▁led	-10.3538
▁fine	-10.3538
▁lược	-10.3539
▁finish	-10.3548
▁Nào	-10.3548
ley	-10.3558
▁engineer	-10.356
▁Dù	-10.3562
▁Who	-10.3574
▁surprising	-10.3579
▁cãi	-10.3579
▁nhựa	-10.3579
▁hot	-10.3587
▁ko	-10.3593
the	-10.3601
▁male	-10.3602
▁several	-10.3623
▁tật	-10.3623
▁solar	-10.3623
▁khấu	-10.3629
▁Dan	-10.3637
▁mả	-10.364
▁visual	-10.3641
▁chặn	-10.3648
▁e	-10.3649
▁traditional	-10.3652
▁chemical	-10.3668
tic	-10.3676
▁skin	-10.3683
hiếc	-10.3696
ặp	-10.3707
▁forest	-10.3714
▁đò	-10.3715
▁giảng	-10.3721
▁income	-10.3727
ịch	-10.3732
ur	-10.3742
low	-10.3753
▁Twitter	-10.3758
▁ngoái	-10.3758
▁hè	-10.3758
▁price	-10.3767
ually	-10.3769
▁connected	-10.3781
ét	-10.3782
▁thai	-10.3791
▁decisions	-10.3792
▁bó	-10.38
▁mừng	-10.3813
▁Most	-10.3827
li	-10.3838
▁context	-10.3839
▁ngang	-10.3849
▁peace	-10.385
▁yên	-10.3851
ối	-10.3852
êm	-10.386
se	-10.3873
▁oh	-10.3884
▁nhạ	-10.389
▁vú	-10.3895
▁huố	-10.3898
▁deliver	-10.3899
▁diệt	-10.39
▁decision	-10.3905
▁drugs	-10.3913
▁tràn	-10.3919
ua	-10.3933
▁computers	-10.3939
▁immediate	-10.394
▁carry	-10.3943
▁thao	-10.3948
▁mại	-10.3948
▁letter	-10.3949
▁link	-10.395
▁Phả	-10.3951
▁includ	-10.3966
▁xoá	-10.3986
▁mây	-10.3988
▁famous	-10.3992
▁square	-10.3992
▁hương	-10.3992
v	-10.3999
3	-10.3999
▁training	-10.4012
▁2000	-10.4023
▁sốt	-10.4032
▁sổ	-10.4033
▁task	-10.4036
▁critical	-10.4043
▁publish	-10.4054
▁clean	-10.4058
▁hang	-10.4058
▁mộ	-10.4071
▁Nh	-10.4076
▁perspective	-10.4079
▁tỏ	-10.4086
▁chép	-10.4088
▁rise	-10.4089
▁lesson	-10.4092
▁version	-10.4099
▁involve	-10.4102
ình	-10.4105
▁Einstein	-10.4125
▁vong	-10.4127
▁đùa	-10.4127
▁math	-10.4134
▁Lú	-10.4138
ói	-10.4145
▁400	-10.4146
ỡ	-10.4146
▁Pa	-10.4159
▁genetic	-10.4168
ood	-10.4182
▁lành	-10.4189
▁minute	-10.4213
▁foot	-10.4214
▁college	-10.422
▁hour	-10.4224
odies	-10.4228
▁Dr	-10.423
▁standard	-10.4235
▁door	-10.4248
▁thận	-10.425
ê	-10.4257
▁bank	-10.4257
O	-10.4267
▁freedom	-10.4267
▁direction	-10.4274
▁bom	-10.4281
▁CO	-10.429
▁ám	-10.4292
▁shift	-10.4298
▁prevent	-10.4315
▁compassion	-10.4315
▁fit	-10.4319
ặc	-10.4324
▁mập	-10.433
▁improve	-10.4334
rên	-10.4337
▁depend	-10.4341
▁bacteria	-10.4349
▁agree	-10.4362
▁poverty	-10.4362
▁crisis	-10.4363
▁wife	-10.4366
▁mực	-10.4367
▁ngu	-10.4388
▁bus	-10.4394
▁eventual	-10.4411
▁warm	-10.4418
▁haven	-10.4436
▁mom	-10.4438
da	-10.4451
▁bắn	-10.4459
▁ADN	-10.4459
▁súng	-10.4464
ier	-10.4467
▁conflict	-10.4495
ized	-10.4499
▁mo	-10.4503
▁Washington	-10.4507
▁hiếm	-10.4507
hiều	-10.4514
▁supposed	-10.4514
▁excited	-10.4515
▁politic	-10.452
▁trào	-10.4526
hiến	-10.453
kept	-10.4537
▁cứng	-10.4544
▁thổ	-10.4553
▁wind	-10.4556
▁tiêm	-10.4558
▁speed	-10.4568
▁chán	-10.4574
▁aren	-10.458
▁reading	-10.46
▁Sa	-10.4602
▁nhằ	-10.4605
▁effort	-10.4605
▁respond	-10.4605
▁ngọn	-10.4605
▁please	-10.4611
▁path	-10.4624
am	-10.463
▁secret	-10.4634
▁accept	-10.4654
▁board	-10.4655
▁Like	-10.4655
▁Mẹ	-10.4655
▁kí	-10.4656
▁móc	-10.4659
▁lower	-10.4665
▁Re	-10.4667
▁alive	-10.4668
de	-10.4685
▁Đố	-10.4692
▁exciting	-10.4704
▁lừa	-10.4705
▁remarkabl	-10.4742
▁visit	-10.4747
▁interact	-10.4751
▁possibilit	-10.4754
▁earlie	-10.4754
▁liền	-10.4754
▁dối	-10.4756
▁Pháp	-10.4756
▁Charles	-10.4764
▁Bằng	-10.4767
▁gas	-10.4777
▁cát	-10.4777
▁meant	-10.4783
▁óc	-10.4792
▁religion	-10.4804
▁gỗ	-10.4805
▁societies	-10.4814
▁skills	-10.4815
▁serie	-10.4817
▁fill	-10.4819
▁Universit	-10.4824
▁higher	-10.4825
magine	-10.4835
▁enjoy	-10.4854
▁target	-10.4854
▁above	-10.4854
▁argument	-10.4854
▁super	-10.4855
▁amp	-10.4859
▁đua	-10.4859
oặc	-10.4861
▁dư	-10.4862
▁thờ	-10.4863
▁béo	-10.4876
uỳ	-10.4901
▁financial	-10.4907
▁products	-10.491
▁flow	-10.4914
R	-10.4915
▁cú	-10.4915
.000	-10.4918
▁150	-10.4923
▁institution	-10.4928
▁pin	-10.4933
▁hoàng	-10.4943
▁solutions	-10.4944
▁weight	-10.4949
▁progress	-10.4953
▁famili	-10.4955
▁daughter	-10.4955
▁expensive	-10.4955
▁Big	-10.4958
▁typical	-10.496
▁purpose	-10.496
▁Your	-10.4962
▁afford	-10.4963
▁che	-10.497
▁cam	-10.4972
▁impossibl	-10.498
▁khung	-10.4985
▁explore	-10.5002
▁blind	-10.5005
▁police	-10.5006
▁thầy	-10.5006
▁smell	-10.5006
▁bunch	-10.5007
▁evolution	-10.5011
▁Joe	-10.5026
▁căng	-10.5028
ồng	-10.503
▁Liê	-10.5035
ron	-10.5045
▁mạc	-10.5054
▁bậc	-10.5057
▁policy	-10.5057
▁mai	-10.5068
▁cỏ	-10.5068
▁lũ	-10.5074
▁Thái	-10.508
gen	-10.5085
▁perform	-10.5091
▁ạ	-10.5093
ah	-10.5095
▁hối	-10.5096
▁concern	-10.5109
▁ngưỡng	-10.5109
▁slight	-10.5111
▁medicine	-10.5111
▁bar	-10.5112
▁anywhere	-10.512
▁massive	-10.5122
▁triế	-10.5125
▁prison	-10.5126
ỷ	-10.5144
▁Adam	-10.5161
▁MIT	-10.5161
▁bã	-10.5167
▁familiar	-10.5169
▁thuậ	-10.5171
xoay	-10.5179
▁neurons	-10.5182
ck	-10.5201
▁ác	-10.5206
▁method	-10.5207
▁colleague	-10.5213
▁magic	-10.5215
▁sent	-10.5215
ak	-10.5227
ver	-10.523
▁rượu	-10.5265
▁straight	-10.5265
▁window	-10.5265
▁funny	-10.5266
▁Hô	-10.527
▁thuyền	-10.5273
▁Man	-10.5277
▁teaching	-10.5286
▁race	-10.5287
▁mét	-10.529
▁sexual	-10.5298
▁robots	-10.5299
ẩu	-10.5303
▁táo	-10.5308
▁larger	-10.5327
▁reduce	-10.5346
▁cap	-10.5347
▁site	-10.535
ởi	-10.5362
▁Toda	-10.5363
▁strange	-10.5367
▁unique	-10.5371
▁nhũng	-10.5372
▁2008	-10.5377
▁brains	-10.5402
▁decide	-10.5403
▁City	-10.5413
refore	-10.5428
▁mì	-10.5429
▁vâng	-10.5429
▁hỗn	-10.5441
ial	-10.5442
▁tu	-10.5443
▁usual	-10.5446
like	-10.5451
▁sing	-10.5474
▁Michael	-10.5477
▁constant	-10.5478
▁dangerous	-10.5478
▁interaction	-10.548
▁win	-10.5494
▁writ	-10.5494
ấm	-10.5494
▁involv	-10.5504
H	-10.5526
▁element	-10.5531
▁temperature	-10.5531
▁launch	-10.5531
▁cold	-10.5563
▁career	-10.557
▁sụ	-10.5583
▁bọ	-10.5588
▁ti	-10.5592
▁pha	-10.5596
▁original	-10.5596
▁securit	-10.56
▁saving	-10.5605
▁côn	-10.5621
▁machines	-10.5625
▁tạ	-10.5627
▁tissue	-10.564
▁shark	-10.5641
▁signal	-10.5644
▁rủ	-10.5646
▁shot	-10.5647
▁check	-10.565
▁Cha	-10.5652
▁thọ	-10.5654
hiếp	-10.5657
▁gene	-10.5657
▁types	-10.5669
▁ngón	-10.5672
tally	-10.5679
▁ức	-10.5681
▁beauty	-10.5694
▁complicated	-10.5694
ir	-10.5699
▁nút	-10.5701
▁biệ	-10.5703
▁tỉnh	-10.5718
▁smaller	-10.5719
▁mồ	-10.5721
▁Ho	-10.5726
▁yeah	-10.5749
▁international	-10.5749
óm	-10.5772
▁luck	-10.5776
ri	-10.5781
▁35	-10.5783
ao	-10.5796
▁painting	-10.5796
▁hắn	-10.5804
▁German	-10.5805
▁increasing	-10.5807
▁fuel	-10.581
▁active	-10.5823
▁à	-10.5825
▁legs	-10.5825
▁gà	-10.5827
▁mò	-10.5832
lo	-10.5832
P	-10.5846
▁lù	-10.5855
w	-10.5868
▁scar	-10.5869
▁bả	-10.587
▁brother	-10.587
▁communication	-10.5871
▁genes	-10.5876
▁serious	-10.5887
▁shared	-10.5896
▁tò	-10.59
ưởng	-10.5901
▁lụ	-10.5902
00	-10.5907
▁bone	-10.5911
▁babies	-10.5916
▁Two	-10.5917
▁Nhì	-10.5918
▁truy	-10.592
▁address	-10.592
▁mạo	-10.5923
▁hồn	-10.5923
▁performance	-10.5923
▁Western	-10.5923
▁Los	-10.5949
▁gọn	-10.5969
▁fantastic	-10.5972
▁heat	-10.5973
▁dance	-10.5973
▁release	-10.5976
▁card	-10.5978
▁túc	-10.5983
▁humanity	-10.5991
ười	-10.5992
▁thiểu	-10.5996
▁press	-10.5999
▁vote	-10.6001
▁stopp	-10.6006
▁im	-10.6025
▁television	-10.6029
▁terribl	-10.6029
▁Richard	-10.6029
▁45	-10.603
▁architecture	-10.6032
▁De	-10.6034
▁su	-10.6047
▁mũi	-10.6057
▁total	-10.6059
0,000	-10.6066
▁report	-10.6072
▁GPS	-10.6085
▁extra	-10.6085
▁trứng	-10.6086
▁wild	-10.6087
▁birth	-10.6091
▁cỗ	-10.6098
▁giận	-10.6102
▁decades	-10.611
▁random	-10.6114
▁engine	-10.6117
▁Ng	-10.6129
ought	-10.6135
▁roll	-10.6141
▁ultimate	-10.6143
▁faci	-10.6143
▁speech	-10.6143
▁Talk	-10.6143
omas	-10.6147
▁thạch	-10.615
ent	-10.6151
▁significant	-10.6153
▁paint	-10.6167
ily	-10.6173
▁phán	-10.6176
▁Fe	-10.6177
▁trade	-10.6179
▁influence	-10.6184
▁Cơ	-10.6199
▁identit	-10.62
▁principle	-10.62
▁PM	-10.6201
▁breath	-10.6207
▁researcher	-10.6218
▁chair	-10.6227
▁achieve	-10.625
ol	-10.6251
ến	-10.6252
▁Đô	-10.6254
▁cản	-10.6255
▁worker	-10.6255
▁forth	-10.6256
▁survive	-10.6258
▁dày	-10.6258
▁instance	-10.6258
▁interview	-10.6258
▁creativity	-10.6258
▁electricity	-10.6259
▁mention	-10.6259
▁mobile	-10.6261
and	-10.6261
▁From	-10.6264
▁surgery	-10.6271
▁khiếp	-10.6273
light	-10.628
▁engineering	-10.6283
▁pro	-10.6294
▁đắn	-10.6312
▁micro	-10.6315
▁creature	-10.6316
▁biology	-10.6316
▁rồ	-10.6316
▁private	-10.6318
▁separate	-10.6319
▁production	-10.6322
▁belief	-10.6322
▁xong	-10.6323
▁brand	-10.6327
▁enter	-10.6331
▁wide	-10.6332
▁thiệp	-10.6333
ated	-10.6342
▁respect	-10.6351
ọc	-10.6354
▁Kế	-10.6354
▁environmental	-10.6354
▁invest	-10.6367
▁summer	-10.6375
▁Haiti	-10.6376
▁hước	-10.6376
▁relative	-10.638
▁park	-10.6388
ính	-10.6392
though	-10.6394
▁cột	-10.6399
9	-10.6403
▁thánh	-10.6403
▁photo	-10.642
▁Lan	-10.6424
▁honest	-10.6434
▁Robert	-10.6435
ảy	-10.6436
ba	-10.6441
▁Ban	-10.6449
▁phó	-10.6457
▁Đế	-10.6459
E	-10.6469
▁lộn	-10.6471
▁cook	-10.6472
▁compare	-10.6489
ant	-10.649
▁failure	-10.6493
▁truyện	-10.6493
▁sand	-10.6495
▁tóc	-10.6497
▁citizens	-10.6514
▁Hi	-10.6523
at	-10.6527
▁propert	-10.6534
5	-10.6544
▁Me	-10.6546
▁unit	-10.6548
▁floor	-10.6552
▁xưa	-10.6553
▁răng	-10.6556
▁2010	-10.6559
▁useful	-10.6559
▁10,000	-10.6567
▁detail	-10.6573
▁xạ	-10.6573
tion	-10.6575
▁gain	-10.6582
▁underst	-10.6589
▁minds	-10.6611
▁trouble	-10.6612
▁convince	-10.6612
▁cụt	-10.6613
▁dọc	-10.6613
▁Nigeria	-10.6626
▁mát	-10.6626
▁apply	-10.6641
▁drop	-10.6645
▁emotional	-10.6647
▁etc	-10.6658
ber	-10.6663
▁bạc	-10.6667
ô	-10.6671
▁crime	-10.6672
▁rưỡi	-10.6672
▁military	-10.6676
▁demand	-10.6676
▁willing	-10.6677
▁vả	-10.6677
▁đài	-10.668
▁bread	-10.668
▁huyết	-10.6685
▁nơ	-10.6689
▁Green	-10.6695
▁May	-10.6697
▁Mark	-10.6702
▁ngự	-10.6709
▁rock	-10.6711
▁miền	-10.6733
▁popular	-10.6734
▁walked	-10.6737
▁star	-10.6746
▁rule	-10.6754
▁sat	-10.6774
▁except	-10.6791
▁communicate	-10.6794
▁tặng	-10.6794
▁vehicle	-10.6794
▁intelligence	-10.6794
▁đĩa	-10.6794
▁Jame	-10.6794
▁dai	-10.6797
▁passion	-10.6797
▁gương	-10.6811
▁text	-10.6816
▁huy	-10.6829
L	-10.6842
▁dad	-10.6846
▁neighborhood	-10.6855
▁classroom	-10.6855
4	-10.686
▁range	-10.6873
ụ	-10.6885
▁recent	-10.6888
▁technique	-10.6917
▁vườn	-10.6917
▁nhỉ	-10.6917
▁ngài	-10.6922
▁click	-10.6925
▁Arab	-10.6944
▁vaccine	-10.6946
▁hư	-10.6949
▁twi	-10.6949
▁Di	-10.6954
▁fold	-10.6966
▁meeting	-10.6969
tia	-10.6974
▁ấm	-10.6978
▁iPhone	-10.6979
▁trộn	-10.6979
▁landscape	-10.6979
▁National	-10.698
▁forget	-10.6987
▁Pakistan	-10.6996
▁quê	-10.6997
iết	-10.7017
▁Bang	-10.702
▁ổ	-10.7028
uỷ	-10.7036
▁speaking	-10.704
▁physics	-10.7041
▁wealth	-10.7041
▁Tổ	-10.7043
▁aware	-10.7044
▁lẻ	-10.705
hand	-10.7051
ong	-10.7063
▁sample	-10.7069
▁bổ	-10.707
▁lô	-10.7071
▁gay	-10.7072
▁khóc	-10.7084
ical	-10.7092
▁75	-10.7098
▁Harvard	-10.7104
▁destroy	-10.7104
▁complexity	-10.7108
▁drawing	-10.7113
▁Bố	-10.7118
▁Have	-10.7119
huyện	-10.7122
▁spot	-10.7123
▁cloud	-10.7139
▁Many	-10.7145
▁zero	-10.7168
▁station	-10.7168
▁conference	-10.7169
▁dính	-10.717
▁jump	-10.7185
uyển	-10.7192
eath	-10.7199
▁hố	-10.7202
▁mãn	-10.7202
▁decade	-10.7207
▁ho	-10.7214
▁va	-10.7219
▁Indian	-10.7228
▁coffee	-10.7231
▁miệng	-10.7231
▁nuclear	-10.7231
▁đớn	-10.7231
▁reward	-10.7232
▁collective	-10.7232
▁document	-10.724
▁Gia	-10.7268
▁highly	-10.7269
▁cultural	-10.7278
▁charge	-10.7286
▁glass	-10.7295
▁tuệ	-10.7295
▁drink	-10.7295
▁campaign	-10.7296
older	-10.7298
▁central	-10.73
▁edge	-10.7314
ling	-10.7315
▁tí	-10.7315
ble	-10.7317
▁election	-10.7323
▁pop	-10.7327
▁poet	-10.7334
ạo	-10.7343
▁Mr	-10.7353
▁profound	-10.736
▁Na	-10.736
▁Take	-10.7361
J	-10.7363
▁meter	-10.7364
▁professional	-10.7365
hiệp	-10.7368
▁hẹn	-10.7374
▁catch	-10.7376
▁bắc	-10.7383
▁His	-10.7413
▁rain	-10.7414
▁kiên	-10.7417
▁introduce	-10.7418
ice	-10.7419
▁Her	-10.7424
▁driving	-10.7425
▁lỏng	-10.7428
way	-10.7431
▁Giáo	-10.7433
▁bù	-10.7434
▁ngầm	-10.7436
▁define	-10.7449
▁chai	-10.7451
rào	-10.7453
▁bear	-10.7456
▁fix	-10.7473
▁lay	-10.7475
▁cycle	-10.7476
▁birds	-10.748
ếu	-10.7483
▁tươ	-10.7483
▁Great	-10.749
▁worst	-10.749
▁virtual	-10.749
▁Middle	-10.749
▁dying	-10.7493
binh	-10.7497
▁kho	-10.7502
▁Dere	-10.7509
▁Ben	-10.7513
▁serve	-10.7518
▁Chà	-10.7535
▁sentence	-10.7537
hâm	-10.7552
▁universit	-10.7556
▁password	-10.7556
▁various	-10.7556
▁option	-10.7557
▁sister	-10.7557
▁vuông	-10.7557
▁phổi	-10.7558
▁inspired	-10.7565
▁đậu	-10.7568
▁laugh	-10.759
▁cốc	-10.7592
▁argue	-10.7593
lin	-10.7597
▁scientist	-10.7603
▁sub	-10.7608
▁afr	-10.7622
▁enormous	-10.7622
▁husband	-10.7622
▁insect	-10.7626
▁Ver	-10.763
▁bạch	-10.7634
▁networks	-10.7645
▁stars	-10.7657
▁nobod	-10.766
▁lão	-10.7676
▁dog	-10.7681
▁Obama	-10.7689
▁root	-10.7689
▁expression	-10.7694
▁bed	-10.7699
▁apart	-10.7701
▁cường	-10.7702
▁Su	-10.7707
wise	-10.7719
▁realiz	-10.7731
oá	-10.7733
▁town	-10.7736
▁thoảng	-10.7737
igger	-10.7739
▁rô	-10.7748
▁double	-10.775
▁tuy	-10.7753
▁remind	-10.7754
▁disappear	-10.7756
▁2007	-10.776
▁23	-10.776
▁Cực	-10.7762
▁vast	-10.7762
▁bridge	-10.7765
▁hạng	-10.7791
▁li	-10.7792
▁Co	-10.7793
▁chợ	-10.7801
tor	-10.7801
od	-10.7807
hỉnh	-10.7814
▁Times	-10.782
▁laptop	-10.7824
▁weapon	-10.7824
▁genome	-10.7824
▁Think	-10.7824
ship	-10.7825
▁radical	-10.7827
▁Bos	-10.7834
▁hu	-10.7839
▁Mĩ	-10.7842
ide	-10.7845
fi	-10.785
bas	-10.7869
▁tây	-10.7879
▁buôn	-10.7888
▁hằng	-10.7894
▁basi	-10.7896
▁capacity	-10.7897
▁careful	-10.79
▁shar	-10.7911
▁flying	-10.7914
▁artists	-10.7915
▁print	-10.792
úc	-10.7924
▁streets	-10.793
▁accident	-10.7931
▁balance	-10.7937
na	-10.7944
▁NASA	-10.796
▁hứa	-10.7961
▁aid	-10.7961
▁investment	-10.7961
▁nướng	-10.7964
▁ngã	-10.7965
▁leo	-10.7965
▁Giá	-10.7966
ture	-10.7981
▁Steve	-10.7985
▁feed	-10.799
▁Thờ	-10.8004
▁avoid	-10.8004
▁missing	-10.8004
huỷ	-10.8007
bility	-10.8016
▁gã	-10.8019
▁threat	-10.8024
▁sector	-10.8029
▁supply	-10.8029
▁galax	-10.8029
▁Paris	-10.8029
▁leadership	-10.803
▁party	-10.8031
▁đảng	-10.8034
ities	-10.8039
▁Jer	-10.8045
▁van	-10.8046
▁rid	-10.8046
▁hoại	-10.8057
▁cong	-10.8061
ha	-10.8063
▁El	-10.8073
▁possibl	-10.8089
▁match	-10.8095
▁evolve	-10.8097
▁breast	-10.8098
▁component	-10.8098
▁Martin	-10.8098
▁gift	-10.8099
▁dramatic	-10.8099
▁chip	-10.8101
▁distance	-10.8105
▁fashion	-10.8111
▁dollar	-10.8121
▁St	-10.8125
ey	-10.8136
▁hate	-10.8159
▁damage	-10.8166
▁Wikipedia	-10.8168
▁imagination	-10.8169
▁river	-10.817
▁Kinh	-10.8171
▁bớ	-10.8174
▁states	-10.8182
▁mission	-10.8188
▁chăng	-10.8194
▁generate	-10.82
▁graph	-10.821
▁Hy	-10.8212
▁nét	-10.8223
▁dimension	-10.8224
▁opportunit	-10.8235
▁multi	-10.8236
ible	-10.8236
▁bột	-10.8238
▁autism	-10.8239
▁0	-10.824
op	-10.8242
▁lưng	-10.8243
▁plann	-10.8247
▁xí	-10.8253
▁Ne	-10.8268
ỗ	-10.8269
W	-10.8271
▁Da	-10.8272
▁flu	-10.8279
òng	-10.8291
▁responsibilit	-10.831
▁expand	-10.831
▁tuyết	-10.831
▁corruption	-10.831
▁lack	-10.8312
▁quà	-10.8315
▁mẻ	-10.8329
▁desire	-10.8333
▁vắc	-10.8334
▁trú	-10.8345
▁ư	-10.8352
▁giày	-10.8367
▁Hộ	-10.8381
▁Second	-10.8381
▁tĩnh	-10.8381
▁Francisco	-10.8381
▁airplane	-10.8383
▁Sam	-10.8387
▁wave	-10.8391
▁đậ	-10.8392
▁layer	-10.8412
▁express	-10.845
▁neighbor	-10.8453
▁opposite	-10.8453
▁Would	-10.8453
▁mèo	-10.8457
▁pressure	-10.8457
▁Nhân	-10.8458
▁kèm	-10.8459
▁advance	-10.8469
▁trà	-10.847
▁loss	-10.8471
▁Khán	-10.8474
▁note	-10.8475
▁sky	-10.8484
G	-10.8484
▁Did	-10.8487
▁traffic	-10.8514
▁article	-10.8526
▁Peter	-10.8526
line	-10.8536
▁bubble	-10.8539
▁trăng	-10.8541
▁dán	-10.8545
▁lung	-10.8546
▁net	-10.8549
▁hearing	-10.8558
▁gap	-10.8558
▁bụng	-10.8565
ninh	-10.8577
▁phì	-10.858
▁circle	-10.8583
▁legal	-10.8588
▁nho	-10.8589
▁instrument	-10.8596
▁universal	-10.8599
▁Again	-10.8599
▁British	-10.8599
▁miss	-10.8603
▁gói	-10.8603
▁European	-10.8603
▁anyway	-10.8604
▁ship	-10.8608
▁none	-10.8617
▁chừ	-10.8636
ite	-10.8638
▁urban	-10.8646
▁receive	-10.8648
▁lõ	-10.8655
▁tough	-10.8657
▁Web	-10.8663
▁clip	-10.8672
▁Street	-10.8672
▁YouTube	-10.8672
▁consequence	-10.8672
▁studio	-10.8672
▁application	-10.8672
▁reveal	-10.8672
▁stem	-10.8672
▁oxygen	-10.8672
▁Nobel	-10.8672
▁infrastructure	-10.8672
▁divide	-10.8682
▁lăn	-10.8686
▁algorithm	-10.8691
co	-10.8703
ex	-10.8704
▁22	-10.8713
▁tha	-10.872
▁quái	-10.8726
▁lậ	-10.8728
▁members	-10.8736
▁san	-10.8741
▁consciousness	-10.8747
▁invite	-10.8747
▁Free	-10.8749
▁Khoản	-10.8754
▁core	-10.8759
▁insight	-10.8761
▁tị	-10.8761
▁equip	-10.8769
▁tám	-10.8787
▁engage	-10.8802
▁capture	-10.8814
ghệ	-10.8817
▁Art	-10.8819
▁French	-10.8821
▁bottle	-10.8821
▁tiệc	-10.8821
▁civilization	-10.8821
▁Over	-10.8821
▁giấu	-10.8823
▁quán	-10.8827
▁definition	-10.8827
▁Mars	-10.8832
▁trần	-10.8838
▁cự	-10.8842
▁reflect	-10.885
▁mờ	-10.8852
▁sàn	-10.8854
▁quote	-10.8854
▁Any	-10.8856
tuck	-10.8858
▁Số	-10.8865
▁contain	-10.888
▁struggle	-10.8884
▁Eric	-10.8887
ực	-10.8907
▁mouth	-10.891
▁lề	-10.8912
▁xô	-10.8925
▁Sun	-10.894
▁hỏng	-10.8942
▁Per	-10.8948
▁Tom	-10.8964
▁Smith	-10.8971
▁responsibl	-10.8972
▁tremendous	-10.8972
▁wisdom	-10.8972
▁advantage	-10.8972
▁dứt	-10.8972
▁atmosphere	-10.8973
▁marrie	-10.8976
▁organism	-10.8981
ùa	-10.8981
▁civil	-10.8982
▁ball	-10.8991
,	-10.8998
▁Cứ	-10.9
▁broken	-10.9003
▁King	-10.9007
▁lệnh	-10.9009
▁combine	-10.9013
▁produc	-10.9016
▁hair	-10.9023
huyền	-10.9025
ize	-10.9026
▁forever	-10.9044
▁trốn	-10.9047
▁patent	-10.9048
▁scene	-10.9048
▁toilet	-10.9049
▁reaction	-10.905
▁phiền	-10.905
▁dynamic	-10.9055
▁chìm	-10.9059
▁Sea	-10.9066
▁grade	-10.9067
▁sứ	-10.9069
▁beat	-10.907
▁bụ	-10.9074
▁ngon	-10.9074
▁kẹ	-10.908
▁Jan	-10.9086
night	-10.9108
rs	-10.9109
ạch	-10.911
▁lặn	-10.9123
▁Audience	-10.9125
▁Manhattan	-10.9125
▁ancient	-10.9125
▁magazine	-10.9125
▁1990	-10.9125
▁tube	-10.9126
ium	-10.9126
▁Angeles	-10.9127
▁background	-10.9127
▁museum	-10.9128
▁architect	-10.9133
▁II	-10.9135
▁capital	-10.9136
▁bão	-10.9138
▁Giả	-10.9146
▁photos	-10.9149
▁date	-10.9169
▁sustainabl	-10.9176
▁tung	-10.9182
he	-10.9184
▁Po	-10.919
▁surviv	-10.9195
▁Darwin	-10.9202
▁ngọt	-10.9202
▁outcome	-10.9203
▁giơ	-10.9206
▁golf	-10.9208
▁consumer	-10.9214
▁cry	-10.9219
▁1,000	-10.9222
▁thoá	-10.9228
▁worry	-10.9234
▁shock	-10.9234
▁talks	-10.9238
▁promise	-10.9239
▁cụm	-10.927
▁cheap	-10.9276
▁Dự	-10.9279
▁president	-10.9281
▁Amazon	-10.9281
▁Good	-10.9283
▁Muslim	-10.9288
▁evolv	-10.9289
▁commercial	-10.9291
▁corner	-10.9298
▁More	-10.9299
▁statistics	-10.9316
▁fully	-10.9317
▁chẩ	-10.9326
term	-10.9337
▁stream	-10.9337
▁rough	-10.9344
▁encourage	-10.9358
▁Japan	-10.9359
▁Alzheimer	-10.9359
▁ecosystem	-10.9359
▁newspaper	-10.9359
▁perception	-10.9359
▁hurt	-10.9359
▁rapid	-10.9359
▁Latin	-10.9359
▁lunch	-10.936
▁pair	-10.936
▁2005	-10.9361
▁unlike	-10.9361
▁operation	-10.9362
▁quí	-10.9362
▁mệnh	-10.9364
▁deeply	-10.9368
▁location	-10.937
▁operate	-10.9371
▁sad	-10.9372
▁Điển	-10.9387
▁mix	-10.9395
▁suffering	-10.9404
▁See	-10.9411
quang	-10.9414
ray	-10.9417
▁heo	-10.9418
▁notion	-10.9423
ball	-10.9423
diversity	-10.9423
men	-10.9432
▁creation	-10.9439
▁oxytocin	-10.9439
▁recover	-10.9439
▁Sometime	-10.944
▁thuế	-10.944
▁Trường	-10.9442
▁claim	-10.9446
▁farm	-10.9459
ember	-10.9471
▁vò	-10.9481
▁cúm	-10.9481
▁prove	-10.9485
▁foreign	-10.9493
▁sick	-10.9494
▁Frank	-10.9505
▁emerg	-10.9509
ram	-10.9513
▁spaces	-10.9513
fer	-10.9516
▁School	-10.9519
▁trưa	-10.9529
▁noise	-10.9534
▁topic	-10.9537
vi	-10.9542
▁colon	-10.9548
▁fascinating	-10.9549
▁parent	-10.9555
ời	-10.956
▁hàm	-10.9572
ướng	-10.9572
bi	-10.9574
▁hop	-10.9579
▁strength	-10.9595
▁Rwanda	-10.9599
▁identify	-10.9599
▁smile	-10.96
▁flight	-10.96
▁contact	-10.9603
▁sữa	-10.9608
▁trick	-10.961
▁dáng	-10.9637
▁laws	-10.9641
▁character	-10.9642
▁mountain	-10.9647
huê	-10.9648
▁error	-10.9681
▁Japanese	-10.9681
▁despi	-10.9681
▁dinner	-10.9681
▁illness	-10.9681
▁labor	-10.9684
▁Once	-10.9686
▁Rập	-10.9688
me	-10.9691
▁foundation	-10.9691
▁justice	-10.9693
▁joy	-10.9696
ứa	-10.97
go	-10.9703
▁logic	-10.9711
▁tradition	-10.9711
▁Australia	-10.9716
▁scan	-10.9717
▁Asia	-10.9719
▁diet	-10.9728
▁shoes	-10.9729
▁Hans	-10.9732
▁tủ	-10.9741
▁Chicago	-10.9763
▁regular	-10.9763
▁strategy	-10.9763
▁proud	-10.9763
▁tuý	-10.9763
▁politician	-10.9763
▁negative	-10.9768
▁graduate	-10.9774
▁tân	-10.9777
dimensional	-10.978
ph	-10.9792
▁khỉ	-10.9793
▁copy	-10.9794
▁plane	-10.9798
▁crowd	-10.9804
▁lang	-10.9818
thing	-10.982
of	-10.9823
▁controll	-10.9831
U	-10.984
▁happi	-10.9844
▁Tiếp	-10.9845
▁1970	-10.9845
▁childhood	-10.9846
▁rét	-10.9847
▁transformation	-10.9848
▁moon	-10.985
▁Gab	-10.9851
▁cấm	-10.9852
▁ngắm	-10.9853
▁Lầ	-10.9865
▁suffer	-10.9882
▁enable	-10.9888
ới	-10.9908
▁puzzle	-10.9926
▁users	-10.9927
▁kị	-10.9928
▁Higg	-10.9929
▁attempt	-10.9929
▁unfortunate	-10.9929
▁MRI	-10.9929
▁Apple	-10.9929
▁marketing	-10.9929
▁marriage	-10.9932
art	-10.9942
▁collapse	-10.9945
▁27	-10.9953
▁chose	-10.9955
▁litera	-10.9964
▁spin	-10.9969
▁due	-10.9978
▁khoan	-10.9995
▁mư	-10.9999
▁spirit	-11.0006
▁injur	-11.0006
▁economist	-11.0013
▁yellow	-11.0013
▁sugar	-11.0013
der	-11.0013
▁feature	-11.0026
▁Van	-11.0037
▁seat	-11.0054
▁shop	-11.0067
king	-11.0081
▁Cộ	-11.0097
▁volunteer	-11.0097
▁interface	-11.0097
▁particle	-11.0097
▁competition	-11.0097
▁internet	-11.0097
▁employee	-11.0098
versus	-11.0098
▁technical	-11.0098
▁Tony	-11.01
▁Wow	-11.01
▁correct	-11.01
▁faith	-11.0101
▁cave	-11.011
▁muỗi	-11.0112
▁Car	-11.0122
▁Chủ	-11.0125
ac	-11.0125
▁Ok	-11.0133
▁cưới	-11.0136
▁bá	-11.0145
▁Chiế	-11.0149
▁biological	-11.0154
▁metal	-11.0166
▁display	-11.0183
▁Gates	-11.0183
▁talent	-11.0183
▁lướt	-11.0184
▁tháp	-11.0185
▁Nha	-11.0189
▁brilliant	-11.019
▁narrative	-11.019
ise	-11.0191
do	-11.0191
▁round	-11.0191
▁include	-11.0191
▁farmers	-11.0191
▁mess	-11.0192
▁speaker	-11.0194
▁killing	-11.0194
▁anti	-11.0202
▁feels	-11.0205
▁rãi	-11.0208
▁knowing	-11.0225
▁effects	-11.0228
▁Hơ	-11.0233
▁Mi	-11.0234
▁ngư	-11.0238
▁related	-11.0246
▁gián	-11.0256
▁truck	-11.0261
▁arrive	-11.0261
▁blow	-11.0262
ạn	-11.0269
▁nhẫn	-11.0269
▁honor	-11.0269
▁motor	-11.0269
▁trượt	-11.027
▁agenc	-11.027
▁cognitive	-11.0271
▁khôn	-11.0273
▁aspect	-11.0279
▁nở	-11.0279
▁app	-11.0285
▁sequence	-11.029
▁phú	-11.0294
▁Jim	-11.0296
▁chúa	-11.0307
ists	-11.0325
▁sơn	-11.0331
▁cuộ	-11.0347
▁thám	-11.0357
▁sensor	-11.0358
nstead	-11.036
▁ngốc	-11.0363
▁ngập	-11.0364
▁gold	-11.0366
▁electrical	-11.0381
▁efficient	-11.0382
▁dá	-11.0385
▁Thiên	-11.0392
▁limited	-11.0393
▁invisible	-11.0395
▁Tin	-11.0399
ster	-11.0408
▁writer	-11.0409
▁sung	-11.043
▁kín	-11.0431
round	-11.0435
▁dis	-11.0436
ors	-11.0437
▁mechanism	-11.0444
▁budget	-11.0444
▁England	-11.0444
▁hidden	-11.0444
▁weird	-11.0444
▁artificial	-11.0446
▁matters	-11.0448
▁nốt	-11.0448
▁nàng	-11.0448
▁Am	-11.0449
▁châm	-11.0449
▁trip	-11.045
▁tướng	-11.0455
▁profit	-11.0477
▁thính	-11.049
ách	-11.0496
▁solv	-11.0506
▁99	-11.0507
ler	-11.0508
▁leader	-11.051
▁island	-11.0513
▁feedback	-11.0532
▁official	-11.0532
▁finger	-11.0533
▁passionate	-11.0533
▁ham	-11.0534
▁fresh	-11.0536
▁pack	-11.054
▁100,000	-11.0541
▁designer	-11.0543
▁xóm	-11.0546
▁meat	-11.0551
▁đâ	-11.0556
▁practical	-11.057
right	-11.057
▁Bao	-11.0572
▁lò	-11.0584
▁thua	-11.0584
▁Nà	-11.0585
▁Does	-11.0594
▁grown	-11.0596
▁opinion	-11.0622
▁succeed	-11.0622
▁khớp	-11.0622
▁construction	-11.0623
▁depression	-11.0623
▁Congo	-11.0623
▁collection	-11.0626
▁infect	-11.0633
▁Ah	-11.0646
▁đự	-11.0646
▁voices	-11.0661
▁hopeful	-11.0664
▁bơ	-11.0679
ga	-11.0696
▁discovery	-11.0698
▁nurse	-11.0708
▁score	-11.071
▁leaving	-11.0712
▁nắng	-11.0712
▁drone	-11.0712
▁mouse	-11.0712
▁1960	-11.0712
▁tumor	-11.0714
▁2,000	-11.0719
state	-11.0721
▁vở	-11.0728
ization	-11.0729
▁proper	-11.0741
▁ideal	-11.0749
▁Hệ	-11.0749
▁hell	-11.0765
▁ex	-11.0777
▁authorit	-11.0783
▁Bo	-11.079
▁củ	-11.0792
▁estimate	-11.0794
▁phạt	-11.0803
▁Could	-11.0803
▁disaster	-11.0805
▁laser	-11.0805
▁tháo	-11.0807
▁compar	-11.0812
▁95	-11.0815
▁fan	-11.0819
09	-11.0819
▁nhãn	-11.082
▁bag	-11.0821
▁toả	-11.0835
▁switch	-11.0848
▁kha	-11.0848
led	-11.0863
▁wire	-11.0866
▁Tự	-11.0877
▁remove	-11.0889
▁leg	-11.089
▁discuss	-11.0892
▁piano	-11.0894
▁platform	-11.0894
▁satellite	-11.0894
▁Nghĩ	-11.0894
▁awesome	-11.0894
▁entertain	-11.0894
▁earth	-11.0895
▁lông	-11.0896
▁grandmother	-11.0897
▁pleasure	-11.0897
▁precise	-11.09
▁hầm	-11.0901
▁mạn	-11.0907
▁Henr	-11.0908
▁battle	-11.0911
▁nọ	-11.0919
▁industrial	-11.0922
▁analys	-11.0922
▁sold	-11.0933
▁Ka	-11.0953
▁mũ	-11.0954
▁chả	-11.0962
▁era	-11.097
▁vu	-11.0972
▁metaphor	-11.0973
▁wood	-11.098
▁Lo	-11.0983
▁đuôi	-11.0987
▁theater	-11.0988
▁Khoa	-11.099
▁odd	-11.099
rry	-11.0992
▁highest	-11.0998
j	-11.1001
▁600	-11.1005
▁Gầ	-11.1005
▁exercise	-11.1005
▁Thông	-11.1007
▁cưỡ	-11.1016
berg	-11.1033
▁surround	-11.1034
▁sustain	-11.1046
▁thô	-11.1049
▁ordinar	-11.108
▁origami	-11.108
▁2004	-11.1081
▁musician	-11.1083
▁accurate	-11.1083
▁adapt	-11.1084
▁Se	-11.1085
▁invention	-11.1085
▁boat	-11.1091
▁Bình	-11.1091
▁camp	-11.1093
▁determine	-11.1094
▁gố	-11.1108
▁Quá	-11.1111
▁Come	-11.1123
SW	-11.113
ner	-11.1131
▁independent	-11.1131
▁rare	-11.1133
▁bốt	-11.1135
▁symbol	-11.1138
é	-11.114
▁dạ	-11.1145
▁swim	-11.1147
▁losing	-11.115
▁phenomen	-11.1157
▁frame	-11.1166
ca	-11.1173
▁channel	-11.1174
▁thuẫn	-11.1175
▁string	-11.1175
▁rural	-11.1175
▁worldwide	-11.1176
▁nhở	-11.1176
▁2006	-11.1182
▁Yet	-11.1186
▁Khá	-11.1202
▁Wi	-11.121
▁detect	-11.1225
▁Bu	-11.1234
▁clinical	-11.1235
ốt	-11.1247
▁TEDx	-11.1251
▁giant	-11.1259
▁Đa	-11.126
▁nhắ	-11.1266
▁novel	-11.1266
▁muộn	-11.127
▁distribution	-11.1271
▁Rio	-11.1271
▁pocket	-11.1273
▁quạ	-11.1275
Women	-11.1278
▁translate	-11.1285
▁phô	-11.1285
▁wheel	-11.1289
▁Dương	-11.129
▁Má	-11.1294
ge	-11.1295
▁rung	-11.1298
▁organic	-11.1317
▁hoả	-11.1328
▁debate	-11.1336
ory	-11.134
F	-11.134
▁phái	-11.1346
▁bike	-11.1351
▁1000	-11.1354
ul	-11.1356
▁bế	-11.1363
▁alternative	-11.1366
▁garden	-11.1366
▁dozen	-11.1366
▁demo	-11.1366
▁discussion	-11.1369
▁conscious	-11.137
▁Đồ	-11.1372
▁dry	-11.1374
▁mid	-11.138
ết	-11.1381
▁bright	-11.139
▁Quan	-11.1392
▁soil	-11.1395
▁Ca	-11.1396
▁Mo	-11.1421
▁replace	-11.1428
▁spoke	-11.1428
▁characters	-11.1433
▁lát	-11.1438
▁partner	-11.1441
▁therap	-11.1442
con	-11.1446
▁65	-11.1454
life	-11.1454
que	-11.1455
▁coast	-11.1464
▁fellow	-11.1465
▁ngoa	-11.1465
▁mỹ	-11.1469
▁hòn	-11.1473
▁Tra	-11.148
▁chemistr	-11.1493
hải	-11.1494
ài	-11.1495
▁row	-11.1502
▁harder	-11.1504
▁quát	-11.1513
▁pounds	-11.1515
V	-11.1516
▁tens	-11.1518
ab	-11.152
▁Ju	-11.1524
▁Vi	-11.1533
▁tour	-11.1543
▁Phụ	-11.1544
▁select	-11.1547
▁atom	-11.1555
▁multiple	-11.1561
▁awful	-11.1561
▁lock	-11.1561
▁Hoả	-11.1561
▁Koran	-11.1561
▁peak	-11.1561
▁Lego	-11.1563
▁chicken	-11.1563
▁phẳng	-11.157
▁Loạ	-11.1571
▁bút	-11.1577
▁ngực	-11.1579
aught	-11.1584
▁giam	-11.1592
▁robotic	-11.1593
▁ồn	-11.1595
▁organ	-11.1597
▁đỗ	-11.1598
▁thôn	-11.1608
▁operati	-11.1611
▁250	-11.1629
▁Ngài	-11.1633
▁organize	-11.1636
▁horse	-11.1637
▁poster	-11.1657
▁fat	-11.1658
▁Yemen	-11.166
▁CEO	-11.166
▁valuable	-11.166
▁obes	-11.166
▁malaria	-11.1661
▁label	-11.1662
▁khúc	-11.1664
▁múa	-11.1664
▁nano	-11.1664
▁đới	-11.1664
▁Ven	-11.1667
▁Wall	-11.1667
▁fiction	-11.1669
▁gather	-11.1674
▁trấn	-11.1679
▁organs	-11.1682
▁Hàn	-11.1689
▁Day	-11.1695
▁Cập	-11.1704
▁hip	-11.1704
▁trán	-11.1704
chìa	-11.1707
▁Pat	-11.1707
▁categor	-11.1709
▁mothers	-11.172
▁vươn	-11.1728
ơ	-11.1739
▁demonstrate	-11.174
▁crack	-11.176
▁unexpected	-11.176
▁curious	-11.176
▁illusion	-11.176
▁desert	-11.176
▁1980	-11.176
▁reform	-11.1761
▁1950	-11.1761
▁adopt	-11.1761
▁weather	-11.1761
▁teenager	-11.1763
▁soldiers	-11.1763
▁according	-11.1767
▁kilometer	-11.1768
▁stoo	-11.1771
▁assume	-11.1782
▁burn	-11.1783
▁sp	-11.1785
▁nạ	-11.1787
▁bomb	-11.1792
▁planets	-11.18
end	-11.1837
ệnh	-11.1846
▁harm	-11.1858
▁26	-11.1861
▁sweet	-11.1861
▁incentive	-11.1861
▁mirror	-11.1861
▁empty	-11.1861
▁muscle	-11.1861
▁quiet	-11.1862
▁tomorrow	-11.1863
uân	-11.1867
▁survey	-11.1868
▁dictionar	-11.1871
▁2011	-11.1873
▁applie	-11.1879
▁fell	-11.1893
▁aging	-11.1901
▁user	-11.1923
▁remote	-11.1934
▁taste	-11.194
▁musical	-11.1942
ious	-11.1943
▁chain	-11.1946
▁comfortabl	-11.1954
▁skill	-11.1955
▁participate	-11.1963
▁religious	-11.1963
▁variet	-11.1963
▁nghiện	-11.1963
▁Brian	-11.1964
▁symptom	-11.1966
▁receiv	-11.1966
▁lift	-11.1971
▁Other	-11.1972
▁lifetime	-11.1974
▁grain	-11.1978
▁acid	-11.1981
▁resistan	-11.1984
▁mỏi	-11.1994
ko	-11.1998
▁ride	-11.2003
ow	-11.201
ig	-11.2013
▁Brita	-11.2026
off	-11.2029
▁caus	-11.2047
▁Jo	-11.2059
▁shapes	-11.2066
▁animation	-11.2066
▁continent	-11.2066
▁Life	-11.2066
▁solid	-11.2066
▁Bush	-11.2067
▁lawyer	-11.2067
▁ráp	-11.2067
▁intellectual	-11.2069
▁curve	-11.2071
▁28	-11.2073
▁customer	-11.2079
ỹ	-11.209
▁Tiến	-11.2093
▁hưu	-11.2093
nce	-11.2094
ria	-11.2107
▁ha	-11.211
▁seriously	-11.212
▁measur	-11.2128
▁details	-11.2135
▁Mar	-11.2142
▁professor	-11.2159
▁judge	-11.2168
▁extract	-11.2169
▁Ghana	-11.2171
▁Uganda	-11.2171
▁evil	-11.2171
▁mosquito	-11.2171
▁ngộ	-11.2171
▁nhặt	-11.2171
▁stupid	-11.2171
▁Thổ	-11.2172
▁Hình	-11.2175
▁cutting	-11.2176
▁danger	-11.2176
▁dả	-11.2177
rễ	-11.2178
▁opening	-11.2182
▁pig	-11.2185
▁lưỡng	-11.2195
▁broad	-11.2196
▁actor	-11.2197
▁sight	-11.2209
▁Long	-11.2217
▁master	-11.2226
0.000	-11.2234
▁electron	-11.2241
▁historical	-11.2257
▁habit	-11.2264
▁govern	-11.227
▁grand	-11.2274
▁democratic	-11.2276
▁equivalent	-11.2276
▁Cambridge	-11.2276
▁jazz	-11.2276
▁Stanford	-11.2276
▁humor	-11.2276
▁combination	-11.2276
▁convert	-11.2276
▁transition	-11.2276
board	-11.2279
▁cuồng	-11.2279
ỏ	-11.2279
▁MT	-11.2281
▁Tốt	-11.2282
▁hormone	-11.2288
▁setting	-11.229
▁vây	-11.2301
▁Their	-11.2307
ỗng	-11.2312
▁Sh	-11.2315
▁vé	-11.2323
▁journalist	-11.2334
izing	-11.2352
▁rational	-11.2354
▁Ji	-11.2358
▁hồng	-11.237
ff	-11.237
▁đồi	-11.237
▁penguins	-11.2377
▁hacker	-11.2381
▁Oxford	-11.2382
▁intelligent	-11.2382
▁regret	-11.2382
▁rắn	-11.2382
▁High	-11.2382
▁hẹp	-11.2382
▁qui	-11.2382
▁Nghe	-11.2382
▁crop	-11.2383
▁32	-11.2383
▁appropriate	-11.2386
▁doubt	-11.2388
▁moves	-11.239
▁continu	-11.2395
▁closed	-11.2405
table	-11.2405
▁charit	-11.2408
▁Ford	-11.2421
▁Will	-11.2422
well	-11.2439
▁sốc	-11.2445
▁vá	-11.2464
▁associate	-11.2475
▁gun	-11.2476
▁lie	-11.2485
▁Le	-11.2488
▁chart	-11.2489
▁ingredient	-11.249
▁liquid	-11.249
▁pizza	-11.249
▁empathy	-11.249
▁LED	-11.249
▁gender	-11.2491
▁apartment	-11.2491
▁diagnose	-11.2493
▁Bank	-11.2493
▁driver	-11.2496
▁plate	-11.2497
▁Jona	-11.2499
▁Lạ	-11.2503
▁analog	-11.2505
▁tail	-11.2514
ating	-11.2522
▁cup	-11.2534
▁pho	-11.2535
hử	-11.2543
▁molecul	-11.2544
▁criminal	-11.2545
▁facilit	-11.2565
uel	-11.2567
▁react	-11.2568
let	-11.2575
▁inner	-11.2587
▁nervous	-11.2598
▁telescope	-11.2598
▁joke	-11.2598
▁knee	-11.2598
▁Three	-11.2599
▁maintain	-11.2599
▁review	-11.2599
▁Center	-11.26
▁motion	-11.26
▁Microsoft	-11.26
▁pure	-11.2602
▁protection	-11.2605
▁battery	-11.2605
▁sheet	-11.261
▁fourth	-11.2613
▁soul	-11.2614
▁Lu	-11.2626
▁author	-11.2632
▁bill	-11.2632
▁band	-11.2639
ke	-11.2644
ivity	-11.2648
hai	-11.2648
▁lọ	-11.2651
▁comment	-11.2651
▁seek	-11.2653
▁ring	-11.2654
▁Swede	-11.2655
▁climb	-11.2661
org	-11.2685
▁vessel	-11.2708
▁equation	-11.2708
▁Pleas	-11.2708
▁enem	-11.2708
▁silence	-11.2709
▁rửa	-11.2709
▁FG	-11.2709
▁grandfather	-11.2711
▁cừu	-11.2712
▁đoan	-11.2712
▁đạn	-11.2713
▁grid	-11.2724
▁extend	-11.2727
▁đáo	-11.2729
▁gan	-11.2732
▁3,000	-11.2734
lic	-11.2739
Q	-11.2748
▁nose	-11.2749
▁cướ	-11.2765
hủ	-11.2768
mer	-11.2769
▁prototype	-11.2772
iv	-11.2773
▁120	-11.2782
▁suit	-11.2788
ify	-11.2796
▁cạn	-11.2819
▁psychology	-11.2819
▁monkey	-11.2819
Y	-11.2819
▁Olympic	-11.282
▁Josh	-11.282
▁Taliban	-11.282
▁fake	-11.282
▁severe	-11.282
▁brief	-11.282
▁giã	-11.2822
work	-11.2824
▁loud	-11.2827
▁sorr	-11.2827
▁memori	-11.2837
▁Tim	-11.2842
▁occurr	-11.2847
▁ignore	-11.2848
▁gentlem	-11.2851
▁manh	-11.2865
ru	-11.2867
▁tần	-11.2887
den	-11.2893
▁printing	-11.2896
ping	-11.2901
om	-11.2901
▁relate	-11.2904
hi	-11.2905
ai	-11.2911
▁meal	-11.2913
▁steps	-11.2914
we	-11.2915
ử	-11.2922
▁Jack	-11.2931
▁circumstance	-11.2932
▁dâm	-11.2932
▁entropy	-11.2932
▁false	-11.2932
▁dẻo	-11.2932
▁staff	-11.2932
▁chocolate	-11.2932
▁definite	-11.2932
▁department	-11.2933
▁Flori	-11.2933
▁sạn	-11.2935
▁epidemic	-11.2936
▁birthday	-11.2937
col	-11.2941
▁refugee	-11.2943
▁dạo	-11.2944
▁reverse	-11.2949
▁Thá	-11.295
▁emissions	-11.2956
▁homes	-11.2961
▁credit	-11.2964
▁dogs	-11.2971
cious	-11.2971
ẳng	-11.2977
▁undern	-11.2977
▁Give	-11.2983
▁ran	-11.2988
▁polle	-11.2989
▁players	-11.303
▁TEDTalk	-11.3045
▁phrase	-11.3045
▁vulnerabl	-11.3045
▁vặ	-11.3045
▁Amy	-11.3047
▁vẹn	-11.3052
▁loop	-11.3052
▁meaningful	-11.3052
uấn	-11.3054
▁consumption	-11.3056
▁soft	-11.3056
▁rì	-11.3057
▁2001	-11.3058
▁Scott	-11.306
▁section	-11.3068
▁lệch	-11.3068
éo	-11.3075
▁contribute	-11.3083
▁lận	-11.3089
▁hung	-11.3094
▁Hill	-11.3095
fa	-11.3101
▁exchange	-11.3117
▁consume	-11.3118
ortality	-11.3118
▁addition	-11.3123
▁cacbon	-11.3125
▁tape	-11.3125
▁xoa	-11.3127
▁Child	-11.3142
▁Science	-11.316
▁rescue	-11.316
▁poem	-11.316
▁dolphin	-11.316
▁lợn	-11.316
▁court	-11.316
▁attract	-11.3161
▁status	-11.3161
▁đạc	-11.3161
source	-11.3165
▁inspiration	-11.3165
▁hò	-11.3165
rtex	-11.3166
▁victims	-11.317
▁calculate	-11.3171
▁sculpture	-11.3171
▁restaurant	-11.3172
▁heads	-11.3181
being	-11.3183
over	-11.3185
▁wine	-11.3204
▁folks	-11.3206
▁na	-11.3209
▁button	-11.3213
▁cultures	-11.3225
▁lờ	-11.3232
▁whom	-11.3237
▁carrie	-11.3248
▁belong	-11.3251
▁provid	-11.3256
▁hack	-11.3271
▁embrace	-11.3273
▁Abraham	-11.3277
▁Aristotle	-11.3277
▁lecture	-11.3277
▁Since	-11.3277
▁Christian	-11.3277
▁elder	-11.3277
▁dọn	-11.3277
▁shadow	-11.3277
▁Coca	-11.3277
▁wake	-11.3277
▁roof	-11.3277
▁zone	-11.3278
▁lady	-11.3279
▁conclusion	-11.3279
▁relevant	-11.328
▁melt	-11.328
▁heavy	-11.3281
foot	-11.3289
▁Un	-11.3292
▁Wolf	-11.3294
▁Nghiê	-11.3302
▁member	-11.3303
▁bias	-11.3305
▁hide	-11.3307
▁Ngô	-11.3307
▁Ko	-11.3307
▁khói	-11.3309
▁kiệ	-11.3314
▁clinic	-11.3323
▁dense	-11.3333
▁inch	-11.3334
ị	-11.3343
▁manager	-11.3347
▁kiê	-11.3347
▁engaged	-11.3352
▁clos	-11.3355
▁bia	-11.3357
▁electric	-11.3358
▁mini	-11.3367
▁rạ	-11.337
▁Thanks	-11.3376
▁sum	-11.3379
ative	-11.3383
▁bio	-11.3386
▁33	-11.3386
ồi	-11.3388
▁Charlie	-11.3394
▁Congress	-11.3394
▁Texas	-11.3394
▁buýt	-11.3394
▁encounter	-11.3394
▁desk	-11.3394
▁jail	-11.3394
▁Daniel	-11.3395
▁file	-11.3395
▁shame	-11.3395
▁drill	-11.3396
▁advertis	-11.3396
▁importan	-11.3397
▁William	-11.3397
▁expectation	-11.3398
▁kẹo	-11.3407
▁Hả	-11.341
▁flower	-11.3425
▁inter	-11.343
▁Ra	-11.3434
▁khuy	-11.3452
▁cure	-11.3465
istic	-11.3465
▁designers	-11.3466
▁mistakes	-11.3467
▁Eve	-11.3486
▁philosoph	-11.3489
▁bắp	-11.3498
▁float	-11.3513
▁repair	-11.3513
▁grateful	-11.3513
▁spectrum	-11.3513
▁implication	-11.3514
▁medium	-11.3514
▁Chú	-11.3514
▁empower	-11.3515
▁cheat	-11.3516
▁height	-11.3517
▁percentage	-11.3525
▁85	-11.353
▁bird	-11.3532
▁apple	-11.3538
▁Last	-11.3539
▁Gar	-11.3541
▁Mos	-11.355
▁tea	-11.3555
20	-11.3559
▁manufactur	-11.3566
▁sh	-11.3573
uồng	-11.3574
▁Edi	-11.3575
▁Kh	-11.3587
▁load	-11.3588
▁occur	-11.3604
▁Ken	-11.3605
gie	-11.3607
▁mòn	-11.3614
▁khé	-11.3617
▁celebrate	-11.3619
ụt	-11.3631
▁sophisticat	-11.3634
▁title	-11.3634
▁hydrogen	-11.3634
▁initial	-11.3635
ỳ	-11.3637
▁academic	-11.3638
▁volume	-11.3638
ware	-11.3642
▁prediction	-11.3644
▁threaten	-11.3654
▁angle	-11.3663
▁graphic	-11.3667
▁Ngâ	-11.3676
▁phase	-11.368
lan	-11.3684
▁Qua	-11.3693
dom	-11.3704
▁Sahara	-11.3707
▁former	-11.3711
▁Pe	-11.3713
nna	-11.3724
▁quad	-11.3735
▁Mac	-11.3738
▁challeng	-11.3745
▁contract	-11.3751
▁devil	-11.3756
▁elephant	-11.3756
▁implant	-11.3756
▁unusual	-11.3756
▁assumption	-11.3756
▁forgot	-11.3756
▁instruction	-11.3756
▁lifestyle	-11.3757
▁Gulf	-11.3759
uck	-11.3765
▁rau	-11.3774
▁rập	-11.3777
àng	-11.3777
▁xám	-11.3779
ina	-11.3787
▁chiê	-11.3795
▁Alex	-11.3799
è	-11.3805
▁Red	-11.3811
▁chín	-11.3825
▁fascinat	-11.3833
hờ	-11.3844
ap	-11.3845
▁emerge	-11.3845
▁conduct	-11.3854
▁lũng	-11.3857
▁dealing	-11.3864
▁Cyr	-11.3868
▁transport	-11.3878
▁librar	-11.3879
▁advice	-11.3879
▁physicist	-11.3879
▁steal	-11.3879
▁mushroom	-11.3879
▁grab	-11.3879
▁regard	-11.3879
▁framework	-11.3879
▁dở	-11.3884
▁dồ	-11.3889
wood	-11.3891
scale	-11.3904
▁director	-11.3905
▁vay	-11.3926
▁chăn	-11.3927
▁cương	-11.3928
èo	-11.3933
▁nhó	-11.3941
▁nế	-11.3954
▁lơ	-11.3955
ee	-11.3988
▁Real	-11.3989
▁Brown	-11.3995
▁xà	-11.3999
▁cents	-11.4002
▁shut	-11.4004
▁admit	-11.4004
▁illegal	-11.4004
▁mathematics	-11.4004
▁polio	-11.4004
▁ruộ	-11.4004
▁intervention	-11.4004
▁reference	-11.4004
▁host	-11.4005
▁winter	-11.4005
▁2050	-11.4005
▁Tuyệt	-11.4007
03	-11.4009
▁Girl	-11.4009
▁Mike	-11.4011
▁Lạp	-11.4012
ụp	-11.4013
▁đợ	-11.4014
▁dốc	-11.4014
stan	-11.4015
▁ố	-11.404
▁handle	-11.4043
▁cat	-11.4045
▁Marc	-11.4055
▁ngừa	-11.4059
▁mechanical	-11.406
▁đai	-11.4069
tro	-11.4072
▁flash	-11.4083
cal	-11.4093
▁Yorker	-11.41
▁illustrate	-11.4117
ure	-11.4122
▁Time	-11.4123
▁player	-11.4124
▁south	-11.4128
▁flat	-11.413
▁Rosling	-11.4131
▁milk	-11.4131
▁innovative	-11.4131
▁Norden	-11.4131
▁gravity	-11.4131
▁collaboration	-11.4131
▁Mandela	-11.4132
▁dirt	-11.4133
▁pour	-11.4133
▁orbit	-11.4137
▁peer	-11.4145
▁awareness	-11.4147
▁item	-11.4152
tra	-11.4152
per	-11.4155
▁lượt	-11.4161
▁nát	-11.4169
▁mỉ	-11.4171
▁emergenc	-11.4182
▁sôi	-11.4183
▁mis	-11.4183
than	-11.4191
▁Mc	-11.4197
▁xé	-11.4203
▁Bác	-11.4205
visible	-11.421
▁hall	-11.4218
đ	-11.4219
ttle	-11.4227
▁Pho	-11.4228
▁ồ	-11.4245
▁Lad	-11.4255
▁concrete	-11.4259
▁economies	-11.4259
▁harvest	-11.4259
▁length	-11.4259
▁earthquake	-11.4259
▁ritual	-11.4259
▁judgment	-11.4259
▁primary	-11.4259
▁witness	-11.4259
▁clever	-11.426
▁yester	-11.426
▁nản	-11.4261
▁Park	-11.4261
▁Hollywo	-11.427
▁vang	-11.4271
▁swimm	-11.4272
▁rush	-11.4272
▁intense	-11.4274
▁productive	-11.4274
▁Đá	-11.4303
▁Ja	-11.4308
ox	-11.4308
▁Điể	-11.4312
▁stone	-11.4317
▁perceive	-11.4317
▁Bob	-11.4319
▁vượng	-11.4327
▁filter	-11.4347
gram	-11.4364
▁phác	-11.4376
▁license	-11.4388
▁Detroit	-11.4389
▁Indonesia	-11.4389
▁Watson	-11.4389
▁client	-11.4389
▁vegetable	-11.4389
▁insulin	-11.4389
▁pump	-11.4389
ranscript	-11.4389
▁characteristic	-11.4389
▁panel	-11.4389
▁privilege	-11.4391
▁sports	-11.4391
▁Sinh	-11.4393
▁appreciate	-11.4394
▁agent	-11.4398
▁Andrew	-11.44
▁finance	-11.4405
▁confidence	-11.4411
van	-11.4415
oc	-11.442
va	-11.4427
6	-11.4431
surance	-11.4442
▁ten	-11.4443
▁Luậ	-11.4449
▁29	-11.4456
▁Syria	-11.4458
▁origin	-11.4459
▁clock	-11.446
▁Toà	-11.4468
▁broke	-11.4475
▁behavioral	-11.4475
ơn	-11.449
á	-11.4492
our	-11.4496
▁needle	-11.4503
▁attach	-11.452
Arthur	-11.452
▁fortunate	-11.452
▁mathematical	-11.452
▁Institute	-11.452
▁barrier	-11.452
▁centuries	-11.452
▁dội	-11.452
▁inevitabl	-11.452
▁Foundation	-11.4521
▁abuse	-11.4521
▁rocket	-11.4521
eeth	-11.4522
▁Steph	-11.4522
▁mượ	-11.4523
▁improvement	-11.4523
▁coral	-11.4524
▁pile	-11.4525
▁statement	-11.4528
▁hydro	-11.4531
▁Chá	-11.4531
▁activist	-11.4532
▁pilot	-11.4534
▁boom	-11.4534
len	-11.4534
▁ear	-11.4535
▁Star	-11.4535
▁Quả	-11.4539
▁mọc	-11.454
▁Yo	-11.4543
▁sites	-11.4563
▁arts	-11.4567
▁videos	-11.4575
▁mountains	-11.4576
▁bor	-11.4576
tum	-11.4589
▁bách	-11.459
▁shoot	-11.4593
▁improv	-11.4603
▁internal	-11.4607
▁Russia	-11.4608
▁danc	-11.461
▁programm	-11.4613
gác	-11.4614
▁Ray	-11.4615
▁lies	-11.4635
bo	-11.4643
Cola	-11.4654
▁Blue	-11.4654
▁Singapore	-11.4654
▁contrast	-11.4654
▁dinosaur	-11.4654
▁steel	-11.4654
▁candidate	-11.4654
▁Iceland	-11.4654
▁split	-11.4654
▁Gandhi	-11.4654
▁transportation	-11.4655
▁nghiệt	-11.4658
▁võ	-11.4659
▁xăng	-11.4659
▁wise	-11.4661
▁đẽ	-11.4666
▁behave	-11.4674
▁Jane	-11.4676
▁comfort	-11.4679
▁hat	-11.4682
▁loa	-11.4682
ệ	-11.4683
ose	-11.4686
BC	-11.4695
▁Lee	-11.4695
▁opera	-11.4696
▁suck	-11.4702
▁stock	-11.471
▁Ha	-11.471
▁tiễn	-11.4752
▁Ki	-11.4757
▁previous	-11.476
▁Matt	-11.4767
ari	-11.4772
▁destructi	-11.478
▁bug	-11.4786
anh	-11.4786
▁transplant	-11.4788
▁agricultur	-11.4788
▁clue	-11.4789
▁fabric	-11.4789
▁Bronx	-11.4789
▁President	-11.4789
▁computing	-11.4789
▁physician	-11.4789
▁muối	-11.4789
▁nerve	-11.4789
▁observation	-11.479
▁France	-11.479
▁tank	-11.4792
▁Project	-11.4794
▁bìa	-11.4794
▁attitude	-11.4795
▁mistake	-11.4796
▁painful	-11.4796
▁hunger	-11.4797
▁coal	-11.4802
av	-11.4802
▁31	-11.4804
▁vắ	-11.4808
úp	-11.4812
wa	-11.4813
ft	-11.4818
▁node	-11.4825
▁entrepreneur	-11.4827
▁Gu	-11.4831
▁prepared	-11.4836
▁50,000	-11.4837
▁circuit	-11.4842
▁quặ	-11.4866
▁entrepreneurs	-11.4872
▁season	-11.488
▁thẳ	-11.4888
hăng	-11.4891
▁north	-11.4902
▁xướ	-11.4903
▁bees	-11.4904
use	-11.4907
▁mad	-11.4913
red	-11.492
▁polici	-11.4926
ubtitle	-11.4926
▁DVD	-11.4926
▁explanation	-11.4926
▁giặ	-11.4926
▁identical	-11.4926
▁procedure	-11.4926
▁plent	-11.4926
ealand	-11.4926
▁frank	-11.4926
▁ruồi	-11.4926
▁kitchen	-11.4926
▁input	-11.4926
▁interactive	-11.4927
▁Islamic	-11.4927
▁hotel	-11.4927
▁prefer	-11.4928
▁lu	-11.4928
▁eggs	-11.4929
▁xích	-11.493
▁Prize	-11.4931
▁ngẩn	-11.4933
▁Lin	-11.4934
▁church	-11.4934
▁bold	-11.4937
▁White	-11.4942
▁quarter	-11.4948
▁Pro	-11.4948
▁fields	-11.4958
▁hunt	-11.4959
what	-11.496
▁shoulder	-11.4974
▁plus	-11.4975
▁ngợ	-11.4988
▁Island	-11.499
▁vaccines	-11.4999
uỹ	-11.5008
▁Bell	-11.501
▁lắc	-11.501
▁protest	-11.5014
▁iron	-11.5014
▁ngụ	-11.5019
car	-11.502
▁dũ	-11.5031
▁sọ	-11.5032
▁breathe	-11.5045
ngry	-11.5047
▁Ga	-11.5054
▁Ro	-11.5062
▁depress	-11.5064
▁Shakespeare	-11.5065
▁Stewart	-11.5065
▁implement	-11.5065
▁lúa	-11.5065
▁motivation	-11.5065
▁trộm	-11.5065
▁revenue	-11.5065
▁biologist	-11.5065
▁radiation	-11.5065
▁sustainability	-11.5066
▁River	-11.5066
▁Chile	-11.5066
▁afterward	-11.5067
efore	-11.5067
▁hóc	-11.5067
▁Carolina	-11.5068
▁obsess	-11.507
een	-11.5074
▁Valle	-11.5083
▁Pole	-11.5088
▁philosopher	-11.509
▁sides	-11.5091
▁Kim	-11.5096
power	-11.5097
water	-11.51
hận	-11.5109
ile	-11.5109
▁Health	-11.5122
▁automatic	-11.5122
▁Hoà	-11.5128
▁Simon	-11.5131
▁ski	-11.5132
▁Mur	-11.5135
▁border	-11.5144
umber	-11.5158
▁tax	-11.5161
▁Ru	-11.5162
▁parking	-11.5176
▁mộng	-11.5181
▁Uni	-11.5182
▁ought	-11.519
▁800	-11.5198
▁bin	-11.5203
▁Fellow	-11.5206
▁deserve	-11.5206
▁existence	-11.5206
▁flag	-11.5206
▁globe	-11.5206
▁Christmas	-11.5206
▁gũi	-11.5206
▁Joseph	-11.5206
▁apparent	-11.5206
▁footprint	-11.5206
▁ladies	-11.5206
▁greenhouse	-11.5206
▁commitment	-11.5206
▁trillion	-11.5207
▁earn	-11.5208
▁rũ	-11.521
▁mươi	-11.5211
▁authentic	-11.5213
▁logo	-11.5213
▁asset	-11.5216
▁activate	-11.5217
▁Phá	-11.5218
▁55	-11.5227
▁laboratory	-11.5233
▁wi	-11.5247
ái	-11.5249
min	-11.5256
▁Ed	-11.5264
▁tím	-11.5266
▁spring	-11.527
▁burning	-11.5272
▁Basic	-11.5274
wan	-11.5282
▁sil	-11.5298
▁Sal	-11.5311
▁pound	-11.5313
aking	-11.5317
ji	-11.5322
▁wars	-11.534
useum	-11.5344
▁arrest	-11.5348
▁frog	-11.5348
▁immune	-11.5348
▁snow	-11.5348
▁Montana	-11.5349
▁Giọ	-11.5349
▁1930	-11.5349
▁horrible	-11.5349
▁trend	-11.5349
▁unknown	-11.5349
▁minister	-11.535
▁download	-11.535
▁Albert	-11.5351
▁Kev	-11.5351
▁Abou	-11.5352
▁2002	-11.5354
▁Sep	-11.5357
▁stroke	-11.5358
ó	-11.5364
▁violent	-11.5366
▁chẽ	-11.5373
▁oceans	-11.5373
▁dỗ	-11.5377
▁tráng	-11.5379
BM	-11.5388
▁trace	-11.5396
▁hét	-11.5401
tech	-11.5401
raising	-11.5403
▁36	-11.5404
▁Nel	-11.541
▁cartoon	-11.5415
▁ếch	-11.5417
óc	-11.5421
har	-11.5421
▁xá	-11.5422
▁ván	-11.5423
▁Get	-11.5429
▁borders	-11.5429
▁37	-11.5439
▁Quy	-11.5439
▁ngẫm	-11.5444
▁repeat	-11.5447
ike	-11.5454
gi	-11.546
▁mail	-11.5464
▁bare	-11.5473
át	-11.5478
▁abstract	-11.549
▁Four	-11.5493
▁liberal	-11.5493
▁wheelchair	-11.5493
▁Revolution	-11.5494
▁silent	-11.5494
▁Jesu	-11.5494
▁frighten	-11.5494
▁technological	-11.5494
▁Chị	-11.5494
▁narrow	-11.5495
▁headline	-11.5495
▁engagement	-11.5495
▁confront	-11.5496
▁establish	-11.5496
▁đệ	-11.5497
▁overall	-11.5497
▁nhường	-11.5498
▁psychologist	-11.5499
▁Laden	-11.5499
▁Ever	-11.55
▁zoom	-11.5502
▁Whe	-11.5505
erson	-11.5506
point	-11.5508
▁Men	-11.5508
▁pitch	-11.5509
▁xỉ	-11.5509
▁sensitive	-11.5518
▁Love	-11.5518
▁conventional	-11.5522
▁bẩn	-11.5527
▁Fa	-11.553
stream	-11.5534
hour	-11.5543
▁liver	-11.5551
▁shell	-11.5555
ham	-11.556
etic	-11.5573
▁capabilit	-11.5587
▁pregnan	-11.5587
▁Alexand	-11.5589
uốt	-11.5593
▁Win	-11.5609
▁myth	-11.5614
▁flowers	-11.562
▁lion	-11.5624
hạch	-11.5627
▁propose	-11.5631
điêu	-11.5632
▁cọ	-11.5633
▁guide	-11.5634
▁favor	-11.5634
▁explor	-11.5635
▁Israeli	-11.5636
▁Islam	-11.5638
▁construct	-11.5638
▁Egypt	-11.564
▁computation	-11.564
▁knock	-11.564
▁miracle	-11.564
▁kick	-11.5641
▁healthcare	-11.5641
▁underwater	-11.5642
▁Điện	-11.5642
▁1900	-11.5643
▁stretch	-11.5646
▁presentation	-11.5647
▁Boy	-11.5647
▁rap	-11.5652
▁Newton	-11.5652
▁beach	-11.5653
▁spreading	-11.5653
▁motivate	-11.5656
▁mến	-11.5657
▁pool	-11.5658
▁Ya	-11.5664
ring	-11.5666
▁limit	-11.5671
▁Oo	-11.5682
ground	-11.5682
truck	-11.5684
▁decline	-11.5684
half	-11.5685
▁700	-11.5691
▁bám	-11.5692
▁lân	-11.5699
▁argu	-11.5704
nda	-11.5708
▁clouds	-11.5709
▁sô	-11.571
▁rely	-11.5711
▁whale	-11.5719
ưới	-11.572
▁donor	-11.572
long	-11.5722
▁nhá	-11.5728
▁lánh	-11.5738
down	-11.5746
▁imp	-11.5751
▁defin	-11.5758
ese	-11.577
▁shake	-11.5776
▁tall	-11.578
▁Mary	-11.5782
▁classic	-11.5783
▁courage	-11.5789
▁cluster	-11.579
▁frequenc	-11.579
▁session	-11.579
▁balloon	-11.579
▁Next	-11.579
▁Anyway	-11.579
▁pollution	-11.579
▁icon	-11.5791
▁rỗng	-11.5791
▁inequalit	-11.5792
▁sáo	-11.5794
▁Ron	-11.5796
ically	-11.5796
▁astonishing	-11.5798
▁presence	-11.5799
▁upper	-11.58
▁Lewi	-11.5801
▁condom	-11.5806
▁dropp	-11.5806
▁sắm	-11.581
▁firm	-11.581
▁Har	-11.5814
stage	-11.5815
ran	-11.5818
ala	-11.5826
▁seal	-11.5829
▁trait	-11.5829
▁cộ	-11.584
▁Ten	-11.5841
▁nhạt	-11.5847
▁Đả	-11.5853
CD	-11.5865
chi	-11.5867
▁phun	-11.5874
▁tribe	-11.5874
lf	-11.5881
▁organiz	-11.5881
▁Jay	-11.5885
▁maps	-11.5889
▁Mô	-11.5902
▁processe	-11.5907
▁km	-11.5914
▁restore	-11.5914
iness	-11.5917
▁hous	-11.5925
▁Silicon	-11.5941
▁froze	-11.5941
▁participant	-11.5941
▁bicycle	-11.5941
▁request	-11.5941
▁chôn	-11.5941
▁nhện	-11.5941
▁calculation	-11.5942
▁Nguyên	-11.5943
▁permanent	-11.5945
▁sphere	-11.5946
▁mổ	-11.5946
▁heroes	-11.5948
▁smoke	-11.5954
▁bê	-11.5959
▁pan	-11.5979
▁vụn	-11.598
▁aim	-11.5991
▁younger	-11.5992
Toàn	-11.6005
▁exception	-11.6006
▁educational	-11.6018
▁gray	-11.6021
▁stands	-11.6022
ris	-11.6024
▁Roy	-11.6036
fe	-11.6037
▁monitor	-11.6048
▁nor	-11.6049
▁dress	-11.6049
▁raw	-11.6049
▁relations	-11.605
▁Whil	-11.605
▁giọ	-11.6057
net	-11.6061
ki	-11.6086
ions	-11.6088
entral	-11.6091
▁frustrat	-11.6093
▁install	-11.6094
▁afternoon	-11.6095
▁efficienc	-11.6095
▁spill	-11.6095
▁cousin	-11.6095
▁mystery	-11.6095
▁sheep	-11.6095
▁regime	-11.6095
▁fluid	-11.6095
▁systematic	-11.6096
ick	-11.6096
▁wireless	-11.6096
▁uncle	-11.6098
▁vạch	-11.6098
▁Đi	-11.6103
▁Bible	-11.6107
▁cord	-11.6109
▁20,000	-11.6115
▁inform	-11.6116
▁Grand	-11.6119
▁Te	-11.6124
gar	-11.6127
▁antibiotics	-11.6128
▁Cor	-11.6136
▁bond	-11.6143
▁king	-11.6144
ợp	-11.6148
oài	-11.6153
▁Philip	-11.6154
▁Final	-11.6162
▁mere	-11.6168
ụng	-11.6196
à	-11.6202
▁5,000	-11.6203
▁limb	-11.6203
ending	-11.6204
▁vờ	-11.6206
▁Jun	-11.6209
ches	-11.6209
▁rã	-11.6212
▁neuron	-11.6213
▁strangers	-11.6217
▁romantic	-11.6218
ification	-11.6222
▁tune	-11.6222
▁thanks	-11.623
▁fl	-11.6235
▁Bắ	-11.6237
ville	-11.6251
▁Peace	-11.6251
▁external	-11.6251
▁furniture	-11.6251
▁passenger	-11.6251
▁Delhi	-11.6251
▁pretend	-11.6251
▁beetle	-11.6252
▁1999	-11.6252
▁Five	-11.6254
▁microscope	-11.6254
▁clothes	-11.6257
▁lỡ	-11.6261
ờ	-11.6262
▁rebuild	-11.6262
▁huynh	-11.6264
▁sét	-11.6269
▁habitat	-11.627
▁OE	-11.6274
▁struggl	-11.6276
▁Eastern	-11.6283
▁reduc	-11.629
rising	-11.6297
▁Port	-11.6299
▁hero	-11.6311
▁committ	-11.6322
▁spoken	-11.6325
▁Li	-11.6328
▁spiritual	-11.633
▁conflicts	-11.6331
bu	-11.635
▁counter	-11.635
▁citizen	-11.6353
▁nhào	-11.6359
town	-11.636
▁quyế	-11.6368
▁Mother	-11.6369
▁escape	-11.6369
▁Cam	-11.6371
▁tip	-11.6371
▁fears	-11.6372
▁cow	-11.639
ưu	-11.6391
▁vứ	-11.6396
▁attend	-11.6401
▁Che	-11.6402
▁Afghan	-11.641
▁Disney	-11.641
▁NGO	-11.641
▁Tanzania	-11.641
▁heaven	-11.641
▁paradigm	-11.641
▁club	-11.641
▁optimistic	-11.641
▁tivi	-11.6411
▁defense	-11.6411
▁agenda	-11.6411
▁scratch	-11.6411
▁Rome	-11.6412
▁Iranian	-11.6412
▁backward	-11.6414
▁Sarah	-11.6414
▁prize	-11.6415
▁Palestine	-11.6416
▁léo	-11.6418
▁intuitive	-11.6421
▁vulnerability	-11.6422
▁House	-11.6423
▁elect	-11.6423
▁2012	-11.6424
▁puts	-11.6425
▁portrait	-11.643
▁boxe	-11.643
▁hill	-11.6431
▁lăng	-11.6442
▁sacrifice	-11.6451
▁roads	-11.6451
▁Carol	-11.6452
▁Sĩ	-11.6454
5,000	-11.6455
ped	-11.6457
class	-11.6466
forward	-11.6466
▁mapp	-11.647
▁adventure	-11.6471
▁Hell	-11.6475
GG	-11.6477
q	-11.6499
Lấy	-11.6502
▁Mov	-11.6503
▁weigh	-11.6509
call	-11.651
▁disorder	-11.6513
▁Ky	-11.652
▁worri	-11.6523
▁beside	-11.6523
▁flip	-11.6526
▁hid	-11.6526
▁Fo	-11.653
▁hí	-11.6533
ark	-11.6537
flies	-11.6543
▁ears	-11.6544
▁exten	-11.6545
▁que	-11.6548
▁analyze	-11.6548
▁tê	-11.6555
▁Wo	-11.6561
ế	-11.6567
ax	-11.6567
▁route	-11.6567
ward	-11.6569
▁Hạ	-11.6569
▁Antarctic	-11.6571
▁ancestor	-11.6571
▁ridiculous	-11.6571
▁Voice	-11.6571
▁fiber	-11.6571
▁Brooklyn	-11.6571
▁ticket	-11.6572
▁ignorance	-11.6572
▁cafe	-11.6572
▁evolutionary	-11.6573
▁densit	-11.6576
▁Rose	-11.6577
▁marathon	-11.6577
▁telephone	-11.6578
▁Jordan	-11.6579
▁discipline	-11.6581
▁stack	-11.6581
▁Au	-11.6604
▁chù	-11.6604
ister	-11.661
▁Thư	-11.6614
▁Tác	-11.6614
oto	-11.6617
▁imagin	-11.6619
war	-11.6619
goài	-11.6621
▁hire	-11.6621
ov	-11.6625
bb	-11.6628
▁Part	-11.6633
▁dish	-11.6637
alem	-11.6642
▁sandwich	-11.6642
sey	-11.6675
▁prisoner	-11.6682
▁rating	-11.6685
▁pen	-11.6687
ev	-11.6689
▁đoạ	-11.669
ero	-11.6693
ka	-11.6704
▁senses	-11.6711
▁hả	-11.6713
▁Tư	-11.6717
▁Dur	-11.6721
▁Fl	-11.6725
▁Black	-11.6731
plan	-11.6732
▁invit	-11.6733
▁edit	-11.6734
▁Vietnam	-11.6735
▁Vẫ	-11.6735
▁district	-11.6735
▁guarantee	-11.6735
▁yield	-11.6735
▁appeal	-11.6735
▁depth	-11.6735
▁embedded	-11.6735
▁database	-11.6735
▁Scotland	-11.6735
▁Bosnia	-11.6736
▁orange	-11.6736
▁Nathan	-11.6736
▁flood	-11.6736
▁airport	-11.6736
▁chớp	-11.6736
▁variation	-11.6736
▁wound	-11.6736
▁exploration	-11.6736
▁sweat	-11.6737
▁tre	-11.6738
▁pill	-11.6739
▁athlete	-11.674
▁chuông	-11.6745
▁cheaper	-11.6746
▁trigger	-11.6746
▁ngớ	-11.6747
gh	-11.6751
▁stor	-11.6757
▁Moor	-11.6761
▁worm	-11.6766
iệt	-11.678
▁style	-11.6789
▁Air	-11.6791
▁lui	-11.6793
▁personalit	-11.6794
▁fossil	-11.6807
▁Kenne	-11.6819
▁limits	-11.6821
▁wash	-11.6823
▁vịnh	-11.6832
▁Up	-11.6833
▁Carl	-11.6841
▁feeding	-11.6848
▁surgeon	-11.6849
ì	-11.685
▁fixed	-11.6852
7	-11.6855
ade	-11.6856
ew	-11.6858
▁seed	-11.6859
alo	-11.6862
▁lưỡ	-11.6864
▁Tes	-11.6868
▁refer	-11.6875
▁figur	-11.689
▁gut	-11.6892
zler	-11.6897
▁Human	-11.6901
▁mammal	-11.6902
nfortunate	-11.6902
▁Parkinson	-11.6902
▁album	-11.6902
▁column	-11.6902
▁demographic	-11.6902
▁leap	-11.6902
openha	-11.6902
▁compound	-11.6902
▁Virginia	-11.6902
▁dopamine	-11.6902
▁1984	-11.6902
▁nhiễu	-11.6902
▁senior	-11.6902
▁crucial	-11.6903
▁interpret	-11.6903
▁spell	-11.6903
▁2030	-11.6903
▁hungry	-11.6903
rctic	-11.6904
▁Johnny	-11.6905
▁ái	-11.6907
▁Jones	-11.6907
▁Ge	-11.6913
▁48	-11.6915
▁Arm	-11.6921
▁bribe	-11.6924
▁Has	-11.6926
▁viewer	-11.6928
▁Tasmanian	-11.693
▁tweet	-11.6936
rit	-11.6938
▁nhú	-11.6941
ica	-11.6944
▁partners	-11.6945
▁Ham	-11.6949
▁Russian	-11.6959
Global	-11.6965
▁Julian	-11.6966
▁abilit	-11.6968
▁Hol	-11.6969
▁rè	-11.6972
▁kìa	-11.6973
▁tribes	-11.6978
án	-11.6982
▁Sử	-11.6985
▁quậ	-11.6997
▁theme	-11.6998
▁engag	-11.7002
▁000	-11.7004
ịnh	-11.7014
▁seeds	-11.7015
uff	-11.7018
▁ensure	-11.7018
▁observ	-11.7034
▁functional	-11.7034
▁command	-11.7048
FO	-11.7051
▁strategi	-11.7062
▁optimis	-11.7071
▁participati	-11.7071
oắn	-11.7071
▁Alpha	-11.7071
▁chromosome	-11.7071
▁corporate	-11.7071
▁gesture	-11.7071
▁iPod	-11.7071
▁jihad	-11.7071
▁obstacle	-11.7071
▁abandon	-11.7071
▁combat	-11.7071
▁household	-11.7071
▁plain	-11.7071
▁suspect	-11.7071
▁mate	-11.7072
▁smartphone	-11.7072
▁conservation	-11.7072
▁leak	-11.7072
▁predator	-11.7072
▁ugl	-11.7073
▁compell	-11.7074
▁cake	-11.7075
▁Chưa	-11.7075
oxide	-11.7077
▁gear	-11.708
ula	-11.7081
▁nei	-11.7087
▁triệ	-11.7091
▁Mon	-11.7091
▁educate	-11.7097
000	-11.7097
▁pet	-11.7102
▁Wa	-11.7104
▁Prince	-11.7111
▁Đấ	-11.7116
▁bồi	-11.7127
▁projection	-11.7128
▁nàn	-11.7135
ota	-11.7136
▁ngử	-11.7138
▁manag	-11.7146
▁imag	-11.7165
▁nhàng	-11.7167
▁Kid	-11.718
▁Dian	-11.7189
▁crash	-11.7214
▁metaboli	-11.7219
xi	-11.7221
ves	-11.7223
ound	-11.7226
▁Si	-11.7234
▁Wal	-11.724
▁Elizabeth	-11.7244
▁gậy	-11.7244
▁psychological	-11.7244
▁strike	-11.7244
▁International	-11.7244
▁debt	-11.7244
▁Sierra	-11.7244
▁đuối	-11.7244
▁hoãn	-11.7244
▁demonstration	-11.7245
▁translation	-11.7245
▁retina	-11.7246
▁cart	-11.7247
▁khoăn	-11.7247
▁suicide	-11.7247
▁đôla	-11.7255
▁march	-11.7256
▁đúc	-11.7256
▁Show	-11.7259
▁classical	-11.7262
▁anger	-11.7264
▁proof	-11.7269
▁nha	-11.7273
▁loan	-11.7273
▁quest	-11.7277
▁Line	-11.7278
▁stepp	-11.728
ềm	-11.728
▁bồ	-11.7283
▁197	-11.7299
xin	-11.7299
hì	-11.7302
▁10-	-11.7303
▁shopp	-11.731
Sahara	-11.7313
▁Khu	-11.7315
house	-11.7315
▁promote	-11.7317
back	-11.7318
rid	-11.732
▁Palm	-11.7324
standing	-11.7325
▁whales	-11.7327
▁bể	-11.7334
▁ló	-11.7338
▁walks	-11.7347
▁gra	-11.7348
▁confus	-11.7349
▁photography	-11.735
▁Julia	-11.7352
▁giậ	-11.7357
▁Sch	-11.736
jo	-11.7364
▁bell	-11.7381
fully	-11.7384
▁Vị	-11.7393
ix	-11.7406
▁magical	-11.7414
ghê	-11.7416
▁dose	-11.7417
▁extinct	-11.7418
▁ron	-11.7419
▁Sylvi	-11.7419
▁prosthetic	-11.7419
▁tunnel	-11.7419
▁recipe	-11.7419
▁Qatar	-11.7419
▁concert	-11.7419
▁General	-11.7419
▁distant	-11.7419
▁genius	-11.7419
▁neuroscience	-11.742
▁boss	-11.742
▁vitamin	-11.742
▁Nature	-11.742
▁shall	-11.742
▁rỉ	-11.742
▁desperate	-11.7421
▁objective	-11.7422
▁alter	-11.7424
▁conservative	-11.7424
▁grass	-11.7424
▁fifth	-11.7426
uch	-11.7426
▁mỡ	-11.7442
▁Ted	-11.7444
bru	-11.7444
▁electronic	-11.7449
▁oxy	-11.7463
▁norm	-11.7465
▁kề	-11.7473
▁thick	-11.7486
American	-11.7493
▁lam	-11.7495
book	-11.7495
▁ill	-11.7503
▁surrounding	-11.7508
▁Nation	-11.7508
▁award	-11.7515
▁Lang	-11.7519
▁Quay	-11.7546
ữ	-11.7556
verse	-11.756
▁secure	-11.7563
▁murder	-11.758
▁hé	-11.7587
▁subtle	-11.7588
▁isolat	-11.7592
▁reject	-11.7596
▁oppos	-11.7598
▁Muhammad	-11.7598
▁description	-11.7598
▁essence	-11.7598
▁intrigu	-11.7598
▁scenario	-11.7598
▁tiệm	-11.7598
▁vertical	-11.7598
▁elite	-11.7598
▁shelter	-11.7598
▁violin	-11.7598
▁Hawk	-11.7598
▁approv	-11.7598
▁Edward	-11.7598
▁privacy	-11.7598
▁rainforest	-11.7598
▁EDI	-11.7598
▁kidney	-11.7598
▁Clinton	-11.7598
▁representative	-11.7598
▁Ethiopia	-11.7599
▁drum	-11.7599
▁contribution	-11.76
▁Nothing	-11.7601
▁Moon	-11.7604
▁Ross	-11.7604
▁resolve	-11.7607
▁scanner	-11.7608
▁blame	-11.761
ú	-11.7611
▁Map	-11.7613
▁specialize	-11.7613
▁recycl	-11.7617
▁bla	-11.762
▁winner	-11.762
eographic	-11.7621
▁ink	-11.7622
▁anonymous	-11.7623
▁instantly	-11.7623
▁Q	-11.7624
▁strip	-11.7625
ulu	-11.7632
▁Sp	-11.7638
ải	-11.7639
▁priorit	-11.7647
▁Ni	-11.7648
▁compete	-11.7658
▁Rememb	-11.7664
ớt	-11.767
▁photographer	-11.768
▁recording	-11.7683
▁vital	-11.7684
▁độn	-11.7686
▁chest	-11.7696
▁meetings	-11.7698
ain	-11.7703
io	-11.7706
▁tap	-11.7708
▁bow	-11.771
eating	-11.772
▁phe	-11.772
▁prime	-11.7721
▁Sant	-11.7721
olds	-11.773
Something	-11.7733
▁boundar	-11.7742
▁excite	-11.7752
top	-11.7759
▁pray	-11.7768
▁cloth	-11.7775
rous	-11.7778
▁Julie	-11.778
▁Roger	-11.778
▁anxiety	-11.778
▁complain	-11.778
▁curiosity	-11.778
▁nghẽn	-11.778
▁pheromone	-11.778
▁robust	-11.778
▁substance	-11.778
▁ultra	-11.778
▁incident	-11.778
▁suspend	-11.778
cific	-11.778
cellular	-11.778
▁freak	-11.778
▁northern	-11.778
▁toxic	-11.778
▁vớ	-11.778
▁cooperation	-11.778
▁nonprofit	-11.778
▁Listen	-11.778
▁Susan	-11.778
▁huý	-11.7781
▁cheese	-11.7781
▁calorie	-11.7781
▁pause	-11.7781
not	-11.779
▁geo	-11.7792
▁inspiring	-11.7792
▁welcome	-11.7794
▁till	-11.7795
ility	-11.7799
▁mile	-11.7799
▁granted	-11.7801
▁Space	-11.7802
▁intention	-11.7806
▁expectanc	-11.7811
qui	-11.7812
fusion	-11.7814
▁axis	-11.7816
▁4,000	-11.7817
▁buồ	-11.7818
▁dive	-11.7819
▁US	-11.7827
88	-11.7829
lly	-11.7838
worth	-11.7859
dependent	-11.7859
▁Was	-11.7861
▁băn	-11.7866
▁pot	-11.7869
tive	-11.7871
▁cartoons	-11.7875
bra	-11.7877
▁Nick	-11.7883
ership	-11.7885
▁Lab	-11.7893
▁ethical	-11.7902
▁Steven	-11.7902
ươi	-11.7911
oth	-11.7917
box	-11.792
▁130	-11.7929
èm	-11.7929
▁Research	-11.793
▁weak	-11.794
▁tag	-11.7944
bit	-11.7947
mar	-11.7949
▁evening	-11.796
▁sensory	-11.7963
▁recogni	-11.7964
▁Through	-11.7965
▁pioneer	-11.7965
▁terrifi	-11.7965
▁silicon	-11.7965
▁tower	-11.7966
▁copyright	-11.7966
▁Leonardo	-11.7966
▁Should	-11.7967
▁chaos	-11.7968
▁resist	-11.7968
▁absorb	-11.797
▁identifie	-11.7972
▁Doug	-11.7972
▁38	-11.7975
▁officer	-11.7992
▁infinite	-11.7992
▁gien	-11.7997
▁Super	-11.8005
▁1.5	-11.8005
▁gãy	-11.8012
▁sauce	-11.8014
uk	-11.8017
▁plot	-11.8017
iest	-11.8021
▁Sir	-11.8029
▁trans	-11.8029
▁Count	-11.8058
▁CD	-11.8059
rick	-11.8063
lew	-11.8077
▁shocking	-11.8077
▁ratio	-11.8085
▁Dea	-11.8086
din	-11.8091
▁killer	-11.8099
▁magnet	-11.8103
▁pr	-11.8104
▁xó	-11.8104
▁defend	-11.8114
digit	-11.8116
ana	-11.8119
▁breed	-11.812
▁nan	-11.8121
▁corn	-11.8123
▁Design	-11.8129
▁Kar	-11.813
▁42	-11.8138
▁hearts	-11.8143
▁46	-11.815
▁accomplish	-11.8152
▁adjust	-11.8154
imbabwe	-11.8154
▁Ushahidi	-11.8154
▁alcohol	-11.8154
▁hamburger	-11.8154
▁iPad	-11.8154
▁medication	-11.8154
empest	-11.8154
▁overcome	-11.8154
▁uncomfortabl	-11.8154
▁tattoo	-11.8154
▁reduction	-11.8154
▁Kì	-11.8155
▁súp	-11.8157
▁Leone	-11.8158
▁observe	-11.8162
ndeed	-11.8165
▁dominant	-11.817
▁vot	-11.8171
▁AK	-11.8181
kin	-11.8185
hoo	-11.8192
▁verb	-11.8203
▁lamp	-11.8203
▁Marco	-11.8205
▁inventor	-11.8209
▁mark	-11.8211
ích	-11.8212
▁None	-11.8223
▁Mom	-11.8236
▁shipp	-11.8241
cô	-11.8241
ford	-11.8247
▁soup	-11.8251
▁mó	-11.8269
▁96	-11.8282
▁mầm	-11.8283
▁sales	-11.8294
▁mớ	-11.8303
▁Dad	-11.8305
▁quit	-11.831
▁transfer	-11.8313
▁cats	-11.8314
RA	-11.8316
▁Phậ	-11.8316
lam	-11.8317
▁Neanderthal	-11.8318
rane	-11.8319
▁reported	-11.8322
áo	-11.8327
▁72	-11.8329
▁Home	-11.8331
ư	-11.8342
epartment	-11.8344
▁Apollo	-11.8346
▁August	-11.8346
▁concentration	-11.8346
▁intuition	-11.8346
▁reconstruct	-11.8346
▁temporar	-11.8346
▁ceiling	-11.8346
▁neural	-11.8346
▁drove	-11.8346
▁textbook	-11.8346
▁regulation	-11.8346
▁salt	-11.8346
▁football	-11.8347
▁Out	-11.8347
▁keyboard	-11.8347
▁uy	-11.8348
▁transparency	-11.8348
▁slice	-11.8348
▁Somalia	-11.8349
▁mentor	-11.835
▁agricultural	-11.835
▁dump	-11.835
▁TEDster	-11.8351
▁representation	-11.8351
▁Anas	-11.8351
▁parallel	-11.8351
▁pace	-11.8351
▁sướng	-11.8351
▁hook	-11.8353
▁trash	-11.8353
▁Cameron	-11.8354
▁gai	-11.8357
▁locate	-11.8358
▁196	-11.8362
▁mice	-11.8376
▁conclude	-11.8379
▁hoan	-11.8381
aday	-11.8383
▁printer	-11.8386
▁trá	-11.839
▁pose	-11.8391
▁integrate	-11.8393
za	-11.8395
▁worrie	-11.8404
▁Hoàn	-11.8407
▁craft	-11.8408
▁ní	-11.841
▁shooting	-11.8414
▁prepare	-11.8415
▁ethic	-11.843
ants	-11.843
century	-11.8437
▁shine	-11.8448
▁trends	-11.8449
▁ấu	-11.8463
▁cast	-11.8464
▁pie	-11.8468
▁preserve	-11.8488
orway	-11.8496
▁slides	-11.8502
▁employ	-11.8513
▁attribute	-11.8513
▁suppose	-11.8514
dor	-11.8514
▁mimic	-11.8517
▁2.0	-11.8524
cus	-11.8529
▁Gold	-11.8533
▁tears	-11.8537
▁rộn	-11.854
▁coin	-11.8541
▁Church	-11.8542
▁Berkeley	-11.8542
▁Square	-11.8542
▁chapter	-11.8542
▁civic	-11.8542
▁mutation	-11.8542
▁protocell	-11.8542
▁garage	-11.8542
▁Philade	-11.8542
▁brown	-11.8542
tlantic	-11.8542
▁bullet	-11.8542
▁partnership	-11.8542
▁alien	-11.8542
▁paralyz	-11.8543
▁Carne	-11.8544
▁exhibition	-11.8544
▁ruin	-11.8545
pu	-11.8545
▁Columbia	-11.8546
▁compromise	-11.8547
▁comic	-11.8549
▁capita	-11.8549
▁nutrient	-11.8551
▁wings	-11.8551
▁homeless	-11.8557
▁peaceful	-11.856
▁uncertaint	-11.856
▁introduc	-11.8562
▁uốn	-11.8564
ryl	-11.8565
▁expos	-11.8572
ủ	-11.8575
▁nhi	-11.8579
▁hông	-11.8586
▁Us	-11.8588
▁stair	-11.8594
▁port	-11.8604
sha	-11.8623
level	-11.8626
▁Lớ	-11.8628
▁Dol	-11.8637
force	-11.8639
▁fir	-11.864
▁SS	-11.8642
istan	-11.8644
▁tale	-11.8652
▁mixed	-11.8658
bro	-11.866
itude	-11.8661
two	-11.8663
▁Never	-11.8666
ntil	-11.8666
made	-11.867
▁Nữ	-11.8671
▁Bolt	-11.8677
▁Kal	-11.8678
all	-11.8685
▁Korea	-11.8696
bon	-11.8704
▁tie	-11.8706
ison	-11.8707
▁inspire	-11.8714
▁formula	-11.8714
▁Op	-11.8717
▁victim	-11.8724
▁profession	-11.8727
ney	-11.8732
▁Khan	-11.8734
▁farmer	-11.8739
▁exhibit	-11.874
▁thắn	-11.874
▁Make	-11.8741
▁Francis	-11.8742
▁Christoph	-11.8742
▁Copernic	-11.8742
▁Argentina	-11.8742
▁Bangladesh	-11.8742
▁Siberia	-11.8742
▁Soviet	-11.8742
▁Sputnik	-11.8742
▁Starbuck	-11.8742
▁Tokyo	-11.8742
▁aesthetic	-11.8742
▁concentrate	-11.8742
▁east	-11.8742
▁explosion	-11.8742
▁spaghetti	-11.8742
▁unbelievabl	-11.8742
azeera	-11.8742
▁dialogue	-11.8742
▁probabilit	-11.8742
▁output	-11.8742
▁array	-11.8742
▁consistent	-11.8742
▁primate	-11.8742
▁ooh	-11.8743
▁resident	-11.8743
▁attractive	-11.8743
▁woke	-11.8743
▁tired	-11.8743
▁Greek	-11.8743
▁variable	-11.8744
▁Não	-11.8745
▁Minister	-11.8746
▁lake	-11.8747
eda	-11.8747
▁Third	-11.8747
▁exploit	-11.8747
▁profile	-11.8747
▁measurement	-11.8748
▁upload	-11.8749
áp	-11.8749
▁hyper	-11.875
▁fortune	-11.8751
▁khùng	-11.8755
▁pulse	-11.8756
▁arriv	-11.8758
▁vần	-11.8758
gging	-11.8768
▁burst	-11.8769
tta	-11.8775
▁Bar	-11.8783
▁utter	-11.8788
▁package	-11.8789
au	-11.8794
▁phế	-11.8795
▁taxi	-11.8802
▁repeated	-11.8806
ze	-11.8821
▁nest	-11.8822
ette	-11.883
▁Mạ	-11.8834
▁khan	-11.8855
clear	-11.8856
case	-11.8856
▁resilienc	-11.8869
met	-11.8875
▁Bali	-11.8877
▁Bay	-11.8909
▁Emma	-11.8912
▁nhã	-11.8913
▁Tell	-11.892
ably	-11.892
▁khen	-11.8922
▁fruit	-11.893
▁3000	-11.8933
▁kệ	-11.8933
▁imager	-11.8934
ổ	-11.894
▁tricks	-11.8942
ale	-11.8944
▁diabet	-11.8945
▁Hawaii	-11.8945
▁instinct	-11.8946
▁burden	-11.8946
▁favela	-11.8946
▁guilt	-11.8946
▁helicopter	-11.8946
▁xộn	-11.8946
lphi	-11.8946
▁Colombia	-11.8946
▁diagram	-11.8946
▁Jeopa	-11.8946
▁hemisphere	-11.8946
▁borrow	-11.8946
▁phosphorus	-11.8946
▁tendenc	-11.8946
▁collaborative	-11.8946
atrix	-11.8946
▁comparison	-11.8946
▁Coke	-11.8947
stein	-11.8947
▁installation	-11.8947
▁limitation	-11.8947
▁Stage	-11.8948
▁mindset	-11.8948
▁traged	-11.8949
▁Six	-11.8949
for	-11.8949
rich	-11.8949
▁achievement	-11.895
▁Luther	-11.895
▁highlight	-11.8951
▁búa	-11.8952
▁pathway	-11.8952
▁darkness	-11.8952
▁Jud	-11.8952
▁Sunday	-11.8954
▁kem	-11.8956
▁kẽ	-11.8958
▁hackers	-11.8958
▁marker	-11.8963
▁Johns	-11.8964
bul	-11.8969
▁format	-11.8972
hood	-11.8973
▁associat	-11.8975
▁mal	-11.8977
▁ủi	-11.8977
▁Kelly	-11.8978
▁Mil	-11.8979
▁Jenni	-11.8983
▁underly	-11.8984
▁electronics	-11.8996
▁nutrition	-11.8998
▁intend	-11.9001
▁magnetic	-11.9002
▁bend	-11.9006
▁additional	-11.9014
▁AM	-11.9017
▁chóc	-11.902
▁dancer	-11.9022
cent	-11.9027
eith	-11.9032
▁grave	-11.9052
▁chày	-11.9055
ories	-11.9061
hop	-11.9066
▁Rock	-11.9073
▁Global	-11.9076
▁350	-11.9088
▁tech	-11.9106
rdy	-11.9108
▁instant	-11.9126
▁Mad	-11.9131
▁sườn	-11.9137
▁brave	-11.9137
▁smok	-11.9137
ừa	-11.9138
▁bound	-11.9142
▁educat	-11.9142
▁industri	-11.9146
▁urge	-11.9147
▁chì	-11.9151
▁strongly	-11.9151
▁kiss	-11.9153
▁chíp	-11.9154
▁Atlanta	-11.9154
▁awkward	-11.9154
▁frequent	-11.9154
▁leather	-11.9154
▁routine	-11.9154
▁Sáu	-11.9154
▁gạt	-11.9154
▁neat	-11.9154
▁Colleg	-11.9154
▁choáng	-11.9155
▁electrode	-11.9155
▁Benjamin	-11.9155
▁Wait	-11.9155
▁Water	-11.9155
▁dignit	-11.9155
▁tragic	-11.9155
▁microbe	-11.9156
▁personaliz	-11.9156
▁Back	-11.9157
▁2.5	-11.9158
▁psychopath	-11.9158
▁rỡ	-11.9159
▁DJ	-11.9161
▁detector	-11.9162
▁lau	-11.9165
▁glow	-11.9166
ho	-11.9169
▁Robot	-11.9169
▁suggestion	-11.9169
▁fulfill	-11.9171
▁palm	-11.9174
▁achiev	-11.9178
▁investor	-11.9181
burgh	-11.9186
▁acknowledge	-11.9186
▁boot	-11.9188
▁describ	-11.9191
▁vọ	-11.9199
▁gradual	-11.9199
▁experienc	-11.9201
han	-11.9202
▁Han	-11.9205
▁Pop	-11.9205
▁beer	-11.9205
▁helpful	-11.9213
bati	-11.9216
▁Del	-11.9232
pper	-11.9235
▁140	-11.9246
▁dig	-11.9252
▁gathering	-11.9254
kh	-11.9259
free	-11.9262
▁Cu	-11.9269
▁xi	-11.9271
form	-11.9271
ago	-11.9279
▁ná	-11.9287
▁bother	-11.93
▁qualit	-11.93
kind	-11.9301
▁Pol	-11.9304
meter	-11.9305
▁divers	-11.9308
▁Du	-11.9316
▁orchestra	-11.9319
ail	-11.9323
▁Uy	-11.9334
rat	-11.9347
▁bath	-11.935
los	-11.9355
▁Emil	-11.9358
▁Leban	-11.9359
oh	-11.936
▁egg	-11.9362
▁exam	-11.9363
▁soldier	-11.9364
▁deploy	-11.9366
▁Michigan	-11.9367
▁Nanopatch	-11.9367
▁bướm	-11.9367
▁ceremon	-11.9367
▁correspond	-11.9367
▁curriculum	-11.9367
▁diagnosi	-11.9367
▁parasite	-11.9367
▁pyramid	-11.9367
▁recruit	-11.9367
▁skull	-11.9367
▁stole	-11.9367
▁extension	-11.9367
▁domain	-11.9367
▁delay	-11.9367
▁relax	-11.9367
▁1998	-11.9367
▁Fried	-11.9368
▁synthetic	-11.9368
▁generous	-11.9368
▁Tesla	-11.9368
▁kingdom	-11.9368
▁chief	-11.9368
▁thrill	-11.9369
▁Rick	-11.937
▁jet	-11.937
▁kiề	-11.9372
▁agreement	-11.9372
▁Đỏ	-11.9374
▁twist	-11.9375
▁confident	-11.9376
▁dial	-11.9376
▁drivers	-11.9376
▁wider	-11.9376
▁Stone	-11.9376
▁Evan	-11.9377
▁rỗi	-11.9378
▁laid	-11.9378
▁dust	-11.9381
▁pink	-11.9389
▁NL	-11.9391
ila	-11.9392
▁tăm	-11.9393
▁spark	-11.9394
▁thơm	-11.9396
▁experimental	-11.9402
▁Oliv	-11.9409
▁1.2	-11.9413
▁fate	-11.9416
▁sport	-11.9421
▁proportion	-11.9422
▁programmer	-11.9426
▁wipe	-11.9429
▁Dut	-11.9432
▁dedicat	-11.9442
▁sharp	-11.9443
▁dịu	-11.9446
bar	-11.9458
▁Ar	-11.946
gged	-11.9472
▁wrapp	-11.9475
▁Thầ	-11.9475
▁determined	-11.9475
▁scann	-11.9476
while	-11.9479
minute	-11.9479
▁distribut	-11.9481
clock	-11.9485
▁coat	-11.9491
▁Spa	-11.9493
▁biế	-11.9497
known	-11.9503
▁thề	-11.9511
▁Lar	-11.9513
▁Ram	-11.9516
▁tạng	-11.9518
▁Com	-11.952
▁64	-11.9524
coli	-11.9534
related	-11.9535
▁Ke	-11.957
▁releas	-11.957
87	-11.9571
▁bite	-11.9579
▁falls	-11.9581
▁thumb	-11.9581
▁distinct	-11.9582
▁trọn	-11.9582
▁Obvious	-11.9584
▁inherent	-11.9584
▁Galapagos	-11.9584
▁simplicity	-11.9584
▁virtue	-11.9584
▁Friday	-11.9584
▁poison	-11.9584
▁federal	-11.9585
▁Lakota	-11.9585
▁Watch	-11.9585
▁kilo	-11.9585
▁amaze	-11.9585
▁broadcast	-11.9585
▁supermarket	-11.9585
▁breakthrough	-11.9585
▁microphone	-11.9585
▁pole	-11.9585
▁hypothesis	-11.9585
▁reef	-11.9585
▁infant	-11.9585
▁mask	-11.9585
▁hallucination	-11.9585
▁retirement	-11.9585
▁Jackson	-11.9586
▁miserable	-11.9587
▁editor	-11.9589
▁duck	-11.959
▁Plato	-11.9592
▁native	-11.9592
air	-11.9593
▁Queen	-11.9594
▁autonomous	-11.9594
▁Mill	-11.9596
▁remov	-11.9598
▁râu	-11.96
▁Louis	-11.9607
rap	-11.9611
▁Berli	-11.9624
▁Chứ	-11.9624
ếch	-11.9625
▁ché	-11.9627
▁Đứ	-11.9628
▁Chad	-11.9633
▁j	-11.9634
▁fo	-11.9637
ology	-11.9645
▁Pri	-11.9651
▁Ital	-11.9658
▁coach	-11.9664
▁lane	-11.9667
▁teen	-11.967
hóm	-11.9673
▁Mama	-11.9681
▁Mari	-11.969
▁gram	-11.9693
place	-11.9695
ỉ	-11.9702
ớc	-11.9705
ery	-11.9705
▁cồn	-11.9707
▁túng	-11.9709
look	-11.9714
izz	-11.9717
▁86	-11.9722
▁occasional	-11.9736
kg	-11.974
▁producer	-11.975
▁wing	-11.9756
▁mall	-11.9756
▁cop	-11.9773
room	-11.9779
ridge	-11.9782
▁Gen	-11.9791
▁Jon	-11.9801
▁Bhutan	-11.9807
▁December	-11.9807
▁chimpanzee	-11.9807
▁currenc	-11.9807
▁fabulous	-11.9807
▁reserve	-11.9807
▁smooth	-11.9807
▁cigarette	-11.9807
▁domestic	-11.9807
▁thrive	-11.9807
▁Spanish	-11.9807
▁glad	-11.9807
▁Rachel	-11.9807
▁breakfast	-11.9807
▁choosing	-11.9807
▁silver	-11.9807
▁primari	-11.9807
▁Giới	-11.9808
▁defeat	-11.9808
▁SMS	-11.9808
▁Jess	-11.9809
▁PH	-11.9809
▁boil	-11.981
▁hẻ	-11.9813
▁infection	-11.9813
▁bô	-11.9814
▁fastest	-11.9815
▁genetically	-11.9815
▁innocent	-11.9817
▁comedy	-11.9818
▁insist	-11.982
▁Beijing	-11.9821
▁hàn	-11.9823
▁outer	-11.9828
▁30,000	-11.9828
▁wedding	-11.983
▁gel	-11.9832
▁chổ	-11.9833
▁Dave	-11.9834
▁mood	-11.9836
▁93	-11.9842
▁serving	-11.9843
▁constraint	-11.9845
▁tongue	-11.9848
▁đục	-11.9849
▁Age	-11.9849
▁trễ	-11.9854
▁viê	-11.9855
▁Miss	-11.9855
▁Pal	-11.9855
▁Hall	-11.9856
ink	-11.9858
▁rape	-11.9863
▁AO	-11.9865
▁container	-11.9866
▁Fortun	-11.9868
▁cent	-11.9873
▁prepar	-11.9873
▁....	-11.9875
ook	-11.9875
ansas	-11.9879
▁den	-11.9881
urkey	-11.9887
set	-11.9887
itus	-11.9893
aker	-11.9893
vity	-11.9894
▁heal	-11.9901
▁Hu	-11.9905
aki	-11.9908
cro	-11.9909
▁sexy	-11.992
dollar	-11.9928
field	-11.9928
four	-11.993
▁bind	-11.9932
▁CP	-11.9934
▁Khả	-11.9935
▁statistical	-11.9936
▁generat	-11.9945
▁cable	-11.9946
▁transmit	-11.9948
rút	-11.9954
▁Kiế	-11.9955
▁Far	-11.9967
▁Maya	-11.997
ửa	-11.9972
▁Chi	-11.9977
▁twin	-11.9978
▁texting	-11.998
▁Tri	-11.9989
▁lens	-11.9992
▁rò	-11.9995
▁đinh	-11.9997
▁doors	-11.9997
▁vạn	-12.0001
mat	-12.0019
▁winn	-12.002
▁pit	-12.0031
▁Babylon	-12.0034
▁bón	-12.0034
▁Jeff	-12.0034
▁Arizona	-12.0034
▁bizarre	-12.0034
▁flavor	-12.0034
▁pursue	-12.0034
▁simulation	-12.0034
▁spider	-12.0034
▁suppress	-12.0034
▁luxur	-12.0034
▁pigeon	-12.0034
▁Địa	-12.0034
▁harness	-12.0034
▁transparent	-12.0034
▁Sudan	-12.0034
▁brutal	-12.0034
▁Octo	-12.0034
▁bedroom	-12.0034
▁censor	-12.0034
▁1995	-12.0034
▁Nepal	-12.0035
▁dẹp	-12.0035
▁division	-12.0035
▁Kiri	-12.0035
▁glacier	-12.0036
▁warning	-12.0036
▁damn	-12.0036
▁weekend	-12.0036
▁globalization	-12.0037
▁ecological	-12.0038
▁cash	-12.004
▁disable	-12.0042
▁sink	-12.0043
▁penguin	-12.0045
▁cute	-12.0046
▁xế	-12.0047
▁southern	-12.0049
▁Dam	-12.0052
▁script	-12.0052
▁pursuit	-12.0057
▁97	-12.0059
▁dơi	-12.0061
▁Less	-12.0065
▁Yu	-12.0069
▁Tiề	-12.0069
▁tear	-12.0073
▁youth	-12.0075
▁fed	-12.0079
lit	-12.0085
▁đè	-12.0087
▁Hoàng	-12.01
▁Alan	-12.0111
▁views	-12.0112
▁Bro	-12.0116
▁determin	-12.0117
▁disorders	-12.0118
hân	-12.0137
▁Len	-12.0137
▁Aar	-12.0138
▁ending	-12.014
cca	-12.0143
▁Jean	-12.015
view	-12.0154
nia	-12.016
spring	-12.0162
iên	-12.0174
▁circuits	-12.0175
can	-12.0176
▁Ali	-12.0182
▁giàn	-12.0189
▁Chế	-12.0191
▁98	-12.0192
▁Uh	-12.0193
oán	-12.0214
AT	-12.0215
▁Br	-12.0216
▁wrap	-12.0236
ronto	-12.0236
▁delivery	-12.0241
▁whistle	-12.0242
▁restaurants	-12.0243
▁replicate	-12.0257
▁navigate	-12.0261
▁refuse	-12.0263
▁blank	-12.0266
▁unemploy	-12.0267
▁Academ	-12.0267
▁Mumbai	-12.0267
▁Power	-12.0267
▁Sweeney	-12.0267
▁Youtube	-12.0267
▁despair	-12.0267
▁fragment	-12.0267
▁hierarch	-12.0267
▁nhộn	-12.0267
▁pandemic	-12.0267
▁pharmaceutical	-12.0267
▁smiling	-12.0267
▁spectacular	-12.0267
▁testosterone	-12.0267
▁unprecedented	-12.0267
▁expedition	-12.0267
▁Sáng	-12.0267
▁ubiquitous	-12.0267
▁1996	-12.0267
▁naked	-12.0267
▁reinvent	-12.0267
▁veteran	-12.0267
▁grandparents	-12.0267
▁ôtô	-12.0267
▁Bern	-12.0267
▁Egyptian	-12.0267
▁prosperity	-12.0267
▁Grace	-12.0268
▁banjo	-12.0268
▁refrigerator	-12.0268
▁Fox	-12.0268
▁artwork	-12.0268
▁geek	-12.0269
▁embodi	-12.0269
▁rốt	-12.0269
▁rethink	-12.027
▁Palestinian	-12.0271
▁Cuba	-12.0272
▁requirement	-12.0272
▁grandchild	-12.0273
▁tension	-12.0273
▁Beau	-12.0273
▁filmmaker	-12.0273
▁vẩn	-12.0278
▁CAPTCHA	-12.0279
born	-12.0281
▁200,000	-12.0283
ual	-12.0285
▁bồn	-12.0285
▁myceli	-12.0287
▁Cal	-12.0288
▁enzyme	-12.0288
hiên	-12.0289
▁factories	-12.0291
▁makers	-12.0292
glasses	-12.0293
▁bon	-12.0295
▁journal	-12.0295
▁crew	-12.0297
▁đòn	-12.0297
▁arise	-12.0307
▁notic	-12.0308
▁brush	-12.031
▁Clay	-12.0328
▁clay	-12.0329
bule	-12.0335
▁gate	-12.034
fel	-12.0347
▁nuts	-12.0349
▁lega	-12.0358
▁Cụ	-12.0361
▁cube	-12.0375
▁Stor	-12.0375
rực	-12.0376
▁upset	-12.0379
▁meme	-12.0385
pped	-12.0401
45	-12.0401
face	-12.0403
▁singer	-12.0406
ington	-12.0409
▁Romo	-12.0409
▁joint	-12.0416
▁Fin	-12.0432
▁enhance	-12.0433
▁ep	-12.0445
therland	-12.0457
▁Sand	-12.046
ẹ	-12.0464
▁phốt	-12.0467
iff	-12.0474
gli	-12.048
stone	-12.0485
58	-12.0487
mail	-12.0491
▁fool	-12.0505
▁Sudden	-12.0505
▁Taylor	-12.0505
▁anticipate	-12.0505
▁recess	-12.0505
▁strand	-12.0505
▁structural	-12.0505
▁watt	-12.0505
▁Alaska	-12.0505
▁indicate	-12.0505
▁audio	-12.0505
▁lifespan	-12.0505
▁Jefferson	-12.0505
▁skeptic	-12.0505
▁Half	-12.0505
▁aircraft	-12.0505
▁assignment	-12.0505
▁1994	-12.0506
▁Ireland	-12.0506
▁rope	-12.0506
▁recall	-12.0506
▁Margar	-12.0506
erra	-12.0506
▁strain	-12.0506
▁hanging	-12.0506
▁basket	-12.0507
▁Skyp	-12.0507
▁homework	-12.0508
▁Christ	-12.0509
▁impression	-12.0509
▁neutral	-12.0511
▁Put	-12.0511
▁accelerate	-12.0511
▁manipulate	-12.0513
▁plug	-12.0519
▁Northern	-12.052
▁Sara	-12.0521
illa	-12.0521
▁SR	-12.0523
▁Lake	-12.0523
▁indoor	-12.053
▁Law	-12.0533
version	-12.0536
▁Same	-12.0537
DP	-12.0538
▁lotter	-12.0538
▁stabilit	-12.0541
▁USD	-12.0541
▁lonel	-12.0542
▁Mah	-12.0554
▁58	-12.0554
▁pháo	-12.0554
▁healing	-12.0556
▁previously	-12.0557
▁torture	-12.0564
▁terrorist	-12.0564
▁believ	-12.0575
▁dressed	-12.0577
▁shak	-12.0578
▁rever	-12.058
pan	-12.0581
star	-12.0587
▁log	-12.0588
▁rhythm	-12.0592
pit	-12.0594
▁Gw	-12.06
▁mode	-12.0603
▁34	-12.0607
▁Dub	-12.0612
▁par	-12.0615
▁distribute	-12.0618
val	-12.0619
▁43	-12.062
▁pad	-12.0627
sleep	-12.0643
space	-12.0644
▁Islands	-12.0647
ám	-12.0647
▁kit	-12.0649
▁prior	-12.065
ìm	-12.0651
▁shin	-12.0666
▁tackle	-12.0669
▁copie	-12.0669
,500	-12.067
hái	-12.0675
rum	-12.0688
▁Cair	-12.0693
hiếu	-12.0695
▁bát	-12.0695
▁mi	-12.0696
▁archive	-12.0705
▁integrat	-12.072
sky	-12.0721
audi	-12.0736
▁muôn	-12.0739
▁44	-12.0746
▁disappoint	-12.0747
▁Beethoven	-12.0749
▁Mexican	-12.0749
▁amateur	-12.0749
▁automobile	-12.0749
▁bẩy	-12.0749
▁compress	-12.0749
▁creator	-12.0749
▁expansi	-12.0749
▁glimpse	-12.0749
▁register	-12.0749
▁signature	-12.0749
▁terrifying	-12.0749
▁Ocean	-12.0749
▁bulb	-12.0749
▁pancrea	-12.0749
▁valley	-12.0749
▁Technolog	-12.0749
▁insane	-12.0749
▁bathroom	-12.0749
▁Homo	-12.0749
▁flourish	-12.0749
▁unconscious	-12.0749
▁Ryan	-12.0749
▁backyard	-12.0749
▁flaw	-12.0749
▁Jewish	-12.0749
▁grasp	-12.0749
▁refine	-12.0749
▁Fire	-12.0749
▁troop	-12.075
▁Đoạ	-12.075
▁fragile	-12.075
▁nerd	-12.0751
▁collaborator	-12.0751
▁denial	-12.0751
▁virút	-12.0751
▁Tunisia	-12.0753
▁dear	-12.0758
▁bump	-12.0761
▁highway	-12.0763
▁marine	-12.0767
▁1.3	-12.0767
corn	-12.0774
▁guard	-12.0775
▁shit	-12.0777
▁expose	-12.0781
▁mayor	-12.0782
▁nã	-12.0784
▁poll	-12.0787
▁overwhelming	-12.0791
▁Meli	-12.0802
▁flexibl	-12.081
▁Social	-12.0814
▁storm	-12.0815
alti	-12.0816
uần	-12.0817
oid	-12.0818
▁div	-12.0819
pro	-12.0821
▁Ku	-12.0824
▁capitalis	-12.0832
▁180	-12.0842
▁arrow	-12.0843
▁len	-12.0843
▁polar	-12.0846
▁ongoing	-12.0848
bye	-12.0848
ries	-12.0852
▁Had	-12.0856
▁arter	-12.0861
▁Sure	-12.0866
▁Lot	-12.0868
▁recogniz	-12.0873
nhồi	-12.0876
third	-12.0893
percent	-12.0894
lm	-12.0898
▁nhí	-12.0906
▁shower	-12.0915
▁logical	-12.0915
▁slums	-12.0919
▁starv	-12.0919
▁Brother	-12.0926
▁fires	-12.0948
ndustrial	-12.0951
▁horizon	-12.0971
8	-12.0971
▁beating	-12.0975
▁tight	-12.0978
▁Stan	-12.0981
▁acquire	-12.099
▁drag	-12.0994
▁retire	-12.0998
▁crystal	-12.0998
▁simultaneous	-12.0999
▁Craig	-12.0999
▁Himalaya	-12.0999
▁Lawrence	-12.0999
▁Mitchell	-12.0999
▁Nairobi	-12.0999
▁phthalate	-12.0999
▁Europa	-12.0999
▁storytelling	-12.0999
▁uniform	-12.0999
▁snake	-12.0999
▁stereotype	-12.0999
▁Compan	-12.0999
▁initiative	-12.0999
▁Shang	-12.0999
▁Spring	-12.0999
▁pipeline	-12.0999
▁contemporar	-12.0999
▁hybrid	-12.0999
▁McDonald	-12.0999
▁Lesterland	-12.0999
▁Jew	-12.0999
▁1975	-12.0999
▁tropic	-12.0999
▁crush	-12.1
▁geometr	-12.1
▁proposal	-12.1001
▁appearance	-12.1001
▁portion	-12.1001
tain	-12.1002
▁burie	-12.1003
▁rice	-12.1003
▁workplace	-12.1004
▁confirm	-12.1005
▁bự	-12.1006
▁interconnected	-12.101
▁manual	-12.101
▁charming	-12.1012
▁convey	-12.1015
▁xảo	-12.1015
iro	-12.1015
▁devastating	-12.1018
▁bowl	-12.1018
▁cur	-12.1024
▁tick	-12.1025
rcul	-12.1025
▁specialist	-12.1026
▁server	-12.1026
▁endless	-12.1026
▁Nhiệ	-12.1027
▁satisfy	-12.1033
▁Mont	-12.1035
ạ	-12.1045
▁offering	-12.1048
sol	-12.1051
rah	-12.1053
enix	-12.1053
raham	-12.1058
▁announc	-12.106
▁Vương	-12.106
mee	-12.1061
▁owner	-12.107
▁Ann	-12.1079
▁leverage	-12.1087
iếm	-12.109
▁ngươ	-12.1097
50	-12.1105
▁sir	-12.1105
rug	-12.1106
ruce	-12.111
0	-12.1127
▁dì	-12.113
▁Aye	-12.1131
▁commit	-12.1138
▁mechanic	-12.1145
load	-12.1152
48	-12.1154
drive	-12.1154
▁fanc	-12.1165
▁democrac	-12.1169
cut	-12.117
oma	-12.1172
love	-12.1174
▁Cố	-12.1175
fin	-12.1182
Man	-12.119
▁sw	-12.1197
▁âu	-12.1197
85	-12.1198
uring	-12.1199
▁52	-12.12
mart	-12.1218
▁Qa	-12.1219
mino	-12.1219
▁xơ	-12.1221
▁developer	-12.1226
oral	-12.123
▁sail	-12.1236
nan	-12.1244
▁schizophreni	-12.1245
unk	-12.1248
▁ideolog	-12.1252
▁Thí	-12.1252
▁recommend	-12.1254
▁CNN	-12.1255
▁Catholic	-12.1255
▁Swiss	-12.1255
▁garbage	-12.1255
▁guerrilla	-12.1255
▁jaw	-12.1255
▁legislati	-12.1255
▁membrane	-12.1255
▁endanger	-12.1255
▁transmission	-12.1255
▁fraction	-12.1255
▁Court	-12.1255
▁Rives	-12.1255
▁Lord	-12.1255
▁pride	-12.1256
▁USA	-12.1256
▁poly	-12.1256
▁ego	-12.1256
▁dough	-12.1256
▁Bọn	-12.1259
▁Dick	-12.126
▁Peru	-12.1262
▁freez	-12.1262
▁tiger	-12.1263
▁update	-12.1269
▁strategic	-12.127
away	-12.1271
▁sùng	-12.1273
▁Est	-12.1274
▁annual	-12.1274
▁Case	-12.1281
▁hub	-12.1282
pho	-12.1284
▁Gall	-12.1286
▁Novem	-12.1289
▁trinh	-12.1291
▁Acc	-12.1296
olation	-12.1304
ologist	-12.1313
ased	-12.1314
row	-12.1316
▁khuất	-12.1317
▁Ur	-12.132
▁mic	-12.1321
rải	-12.1336
▁washing	-12.1342
▁bored	-12.1349
ira	-12.1355
▁Arabi	-12.1359
▁lượ	-12.1362
lick	-12.1363
▁30-	-12.1372
▁decrease	-12.1374
▁burned	-12.1375
ola	-12.1375
ash	-12.1381
▁crows	-12.1387
▁vari	-12.1409
▁Asian	-12.1412
three	-12.1413
▁bổng	-12.1416
▁Dạ	-12.1416
ả	-12.1416
▁CC	-12.1423
▁automat	-12.1426
iego	-12.1429
▁cod	-12.1429
racing	-12.1429
▁typ	-12.143
▁41	-12.1448
▁20-	-12.1452
▁Harl	-12.1453
lium	-12.1454
▁160	-12.1455
▁Ber	-12.1458
▁reli	-12.1459
▁rụ	-12.1461
orse	-12.1464
út	-12.1467
▁nhăn	-12.1471
▁Mau	-12.1471
▁translat	-12.1473
▁juice	-12.1483
zo	-12.1486
rma	-12.1489
▁Rem	-12.1498
▁flowing	-12.1498
hức	-12.1502
▁đọ	-12.1512
▁Bertie	-12.1518
▁Cambodia	-12.1518
▁Guinea	-12.1518
▁Oregon	-12.1518
▁asteroid	-12.1518
▁contagio	-12.1518
▁cylinder	-12.1518
▁elevator	-12.1518
▁excuse	-12.1518
▁grocer	-12.1518
▁harbor	-12.1518
▁mathematician	-12.1518
▁shrimp	-12.1518
▁sponsor	-12.1518
▁oyster	-12.1518
▁Ngoạ	-12.1518
▁cotton	-12.1518
▁towel	-12.1518
▁preference	-12.1518
▁fence	-12.1518
▁syndrome	-12.1518
▁spray	-12.1519
▁sensation	-12.1519
▁static	-12.1519
▁Nghị	-12.152
▁Coast	-12.152
▁lean	-12.152
▁silk	-12.152
ouver	-12.152
▁calm	-12.1521
▁Color	-12.1521
▁Head	-12.1521
▁replacement	-12.1521
▁sake	-12.1521
▁Food	-12.1521
▁passive	-12.1522
▁rổ	-12.1523
lon	-12.1524
iệu	-12.1524
▁Walker	-12.1525
fus	-12.1525
▁disconnect	-12.1525
▁Cape	-12.1526
abad	-12.1526
▁nitri	-12.1527
▁enterprise	-12.1529
▁lê	-12.1529
▁Abu	-12.153
▁se	-12.1532
▁millimeter	-12.1537
▁Jami	-12.1541
▁sin	-12.1542
▁CL	-12.1542
gal	-12.1551
▁Mall	-12.1559
▁Harr	-12.156
▁Đan	-12.1561
▁historic	-12.1565
▁Lib	-12.1574
▁impress	-12.1577
ibera	-12.158
▁tơ	-12.158
▁Rand	-12.1594
hel	-12.1601
ittle	-12.1601
▁AV	-12.1601
▁shirt	-12.1603
▁prim	-12.1604
▁founder	-12.1605
▁Thị	-12.161
▁consum	-12.1613
▁corporations	-12.1618
uả	-12.1629
▁climbing	-12.1632
▁secrets	-12.1633
▁nuố	-12.1642
▁tua	-12.1647
▁tone	-12.1648
▁khiếu	-12.1653
▁Archi	-12.1665
▁199	-12.1665
▁Thú	-12.1671
rt	-12.1672
▁Pra	-12.1674
rd	-12.1677
ulate	-12.1677
ọ	-12.1681
▁125	-12.1685
law	-12.1688
BI	-12.17
engineering	-12.1706
phy	-12.1707
▁Kat	-12.1709
▁Rob	-12.1711
▁ơ	-12.1714
rin	-12.1714
▁antibod	-12.1715
▁fe	-12.1716
▁Val	-12.1718
▁dang	-12.1721
▁ethnic	-12.1722
▁independen	-12.1725
ob	-12.1727
▁Lim	-12.173
▁Bur	-12.1732
▁assum	-12.1734
ưng	-12.174
▁overwhelm	-12.1741
▁Tasmania	-12.1743
▁architectur	-12.1744
▁hon	-12.1746
▁documentar	-12.1749
▁hán	-12.1751
iza	-12.1757
▁Bra	-12.1762
person	-12.1763
▁assembl	-12.1767
▁paradox	-12.1773
ska	-12.178
▁supplie	-12.1781
▁Jenn	-12.1781
▁philanthrop	-12.1785
▁distract	-12.1785
▁Sai	-12.1786
urveillance	-12.1788
▁FDA	-12.1788
▁Stefan	-12.1788
▁accumulate	-12.1788
▁adolescent	-12.1788
▁immense	-12.1788
▁neuroscientist	-12.1788
▁potato	-12.1788
▁receptor	-12.1788
▁rặ	-12.1788
▁serotonin	-12.1788
▁spontaneous	-12.1788
▁trajector	-12.1788
▁genuine	-12.1788
▁drown	-12.1788
▁steer	-12.1788
▁reproduce	-12.1788
▁accus	-12.1789
▁export	-12.1789
▁microRNA	-12.1789
▁valve	-12.1789
▁mysterious	-12.1789
▁texture	-12.1789
▁mutual	-12.1789
▁thylacine	-12.1789
▁Motor	-12.1789
▁renewable	-12.1789
▁salar	-12.1789
▁subway	-12.179
▁Media	-12.179
▁aggressive	-12.1791
▁inmate	-12.1791
▁intent	-12.1792
▁chay	-12.1792
▁sew	-12.1792
▁span	-12.1793
eye	-12.1794
▁Doha	-12.1794
▁Open	-12.1795
▁12,000	-12.1796
BA	-12.1796
▁blogger	-12.1802
▁autist	-12.1803
▁cẩu	-12.1809
▁survived	-12.1811
▁bombs	-12.1821
▁Pier	-12.1824
▁gods	-12.1826
▁lội	-12.1826
▁analyz	-12.1828
▁Nguồ	-12.1828
▁News	-12.1829
▁khe	-12.1835
▁Frankl	-12.1839
▁Thai	-12.1843
witz	-12.1853
▁via	-12.1857
▁association	-12.1857
▁rose	-12.186
MA	-12.187
▁eliminate	-12.187
▁candy	-12.1873
▁occasion	-12.1875
bert	-12.1877
▁sanit	-12.1881
▁cooperate	-12.1882
hưng	-12.1885
▁ironic	-12.1892
▁terroris	-12.1896
▁bùn	-12.1897
▁TS	-12.1902
▁Ell	-12.1904
▁Luc	-12.1925
▁goat	-12.1943
word	-12.1958
profit	-12.196
social	-12.1961
▁beam	-12.1961
controll	-12.1971
▁vác	-12.1973
omi	-12.1974
▁unhapp	-12.1976
▁diploma	-12.2001
▁Tob	-12.2003
▁cai	-12.2006
▁Chữ	-12.2008
▁yo	-12.2008
▁dẫ	-12.2021
▁Mag	-12.2033
.5	-12.2035
▁cosm	-12.2038
▁Tel	-12.2039
ight	-12.2043
▁wir	-12.2043
ibo	-12.2052
reasure	-12.2056
▁khoán	-12.2058
▁teenage	-12.206
▁ướ	-12.2061
▁lử	-12.2061
▁Profess	-12.2062
▁delight	-12.2063
▁excellen	-12.2065
▁leaf	-12.2066
▁transcend	-12.2066
▁intimate	-12.2066
▁Katrina	-12.2066
▁Medicine	-12.2066
▁Nichol	-12.2066
▁PowerPoint	-12.2066
▁Venezuela	-12.2066
▁divorce	-12.2066
▁inherit	-12.2066
▁primitive	-12.2066
▁scaffold	-12.2066
▁sweep	-12.2066
▁terrain	-12.2066
▁threshold	-12.2066
▁sacred	-12.2066
▁dawn	-12.2066
▁impulse	-12.2066
▁strict	-12.2066
▁gallon	-12.2066
▁Oakland	-12.2066
▁cyber	-12.2066
▁1997	-12.2066
▁stamp	-12.2066
▁cruel	-12.2067
▁Gaza	-12.2067
▁FBI	-12.2067
▁Gehr	-12.2067
▁Republican	-12.2067
▁Liberia	-12.2067
▁viral	-12.2067
▁courageous	-12.2067
▁Cloud	-12.2067
moud	-12.2067
▁1992	-12.2067
▁irre	-12.2068
▁Light	-12.2068
▁sỏi	-12.2068
▁friendship	-12.2068
▁neck	-12.2069
▁hometown	-12.2069
▁elementary	-12.2069
▁Đàn	-12.2069
▁investigation	-12.2069
▁detection	-12.2071
▁blindness	-12.2072
▁Organiz	-12.2073
▁reflection	-12.2073
hire	-12.2075
▁boost	-12.2075
▁embrac	-12.2076
▁Phí	-12.2078
▁interrupt	-12.2079
▁tho	-12.2079
▁Histor	-12.208
25	-12.2081
▁drought	-12.2081
▁methan	-12.2091
ướt	-12.2093
▁payment	-12.2095
▁embarrassing	-12.2096
▁soap	-12.2097
▁pipe	-12.2098
▁purchase	-12.2098
▁Moz	-12.21
▁Play	-12.21
▁destiny	-12.2102
▁ngơi	-12.2106
rez	-12.2109
▁lượn	-12.2113
▁Grant	-12.2113
▁explode	-12.2122
▁thỉ	-12.2123
▁Low	-12.2129
▁bucks	-12.2133
gger	-12.2142
▁stranger	-12.2142
huyến	-12.2142
wandering	-12.2151
▁Mario	-12.2158
▁included	-12.216
▁ven	-12.2163
▁Eco	-12.2164
titude	-12.2164
▁xài	-12.2173
▁dumb	-12.2183
▁donation	-12.2186
▁Brit	-12.2189
▁rank	-12.2193
page	-12.2194
fish	-12.22
bular	-12.2201
▁mạ	-12.2202
▁Alic	-12.2213
▁chê	-12.2217
▁institutional	-12.2229
▁socially	-12.223
interest	-12.2247
&	-12.2247
bốt	-12.2248
▁Ala	-12.2249
CO	-12.225
▁bra	-12.2253
fold	-12.2256
▁reliabl	-12.2258
▁Broad	-12.2263
AD	-12.2264
cost	-12.2266
ban	-12.2289
▁neuro	-12.2302
▁blend	-12.2312
▁passe	-12.2312
some	-12.2329
uyền	-12.2332
trong	-12.2334
rag	-12.2335
▁inject	-12.2343
▁rehabilitati	-12.2352
▁jewel	-12.2352
▁Fibonacci	-12.2352
▁Stirling	-12.2352
▁criteri	-12.2352
▁explicit	-12.2352
▁genocide	-12.2352
▁gorgeous	-12.2352
▁magnificent	-12.2352
▁Potter	-12.2352
▁marvel	-12.2352
▁sibling	-12.2352
▁swallow	-12.2352
▁fetus	-12.2352
▁regenerate	-12.2352
▁Saturn	-12.2352
▁Nhạc	-12.2352
▁permission	-12.2352
▁drift	-12.2352
▁mustache	-12.2352
▁intensive	-12.2352
▁Gord	-12.2353
▁canvas	-12.2353
▁honey	-12.2353
▁altitude	-12.2353
▁banana	-12.2353
▁Norman	-12.2353
▁interpretation	-12.2354
▁odor	-12.2354
▁Keep	-12.2354
ough	-12.2355
▁immortal	-12.2357
▁manner	-12.2357
▁campus	-12.2358
▁marry	-12.236
▁Coch	-12.2361
▁bỏng	-12.2362
▁contrar	-12.2363
▁linear	-12.2365
▁accelerati	-12.2365
▁nhược	-12.2369
▁ngào	-12.237
▁controversial	-12.2371
▁competitive	-12.2372
▁magn	-12.2372
▁consist	-12.2374
▁elegant	-12.2375
▁disturbing	-12.2377
▁Bảy	-12.2378
▁Kle	-12.238
hran	-12.2383
▁commodit	-12.2386
▁begu	-12.2387
▁lách	-12.2387
lbert	-12.2393
▁cliff	-12.2394
▁bush	-12.2395
seas	-12.2395
▁tide	-12.2399
▁Aust	-12.24
▁chess	-12.24
osity	-12.24
▁swing	-12.2402
▁nuối	-12.2402
▁upside	-12.2415
▁hở	-12.2417
gill	-12.2424
ause	-12.2427
axit	-12.2429
▁lim	-12.2431
iki	-12.2436
▁flipp	-12.2438
ớ	-12.2443
ament	-12.2446
▁thà	-12.2448
▁Kong	-12.2453
▁replac	-12.2456
▁57	-12.2458
▁fee	-12.2465
pping	-12.2466
▁Juan	-12.2469
▁Whit	-12.2474
▁reporter	-12.2475
▁terror	-12.2478
RG	-12.2484
▁pal	-12.2489
ovo	-12.2492
▁UCL	-12.2493
▁khốn	-12.2496
▁Đạ	-12.2498
keo	-12.2506
mas	-12.2511
▁nắp	-12.2514
▁proven	-12.2519
▁rocks	-12.2526
▁junk	-12.2534
AA	-12.2534
▁examine	-12.2534
rhythm	-12.2539
plus	-12.254
weight	-12.2541
second	-12.2541
▁rà	-12.2546
opper	-12.2546
▁đun	-12.2561
▁shy	-12.2562
▁chốn	-12.2573
▁Mel	-12.2574
▁awe	-12.2576
huma	-12.2576
sight	-12.2576
gentleman	-12.258
▁deni	-12.2581
iễu	-12.2582
lock	-12.259
▁Ror	-12.2596
acre	-12.2597
▁Victoria	-12.26
▁ambitio	-12.2602
tact	-12.2603
▁ru	-12.2617
▁customiz	-12.2621
80	-12.2632
▁custom	-12.2635
▁tele	-12.2635
ôn	-12.2635
insky	-12.2637
▁Turn	-12.2638
▁Radio	-12.2644
▁corrupt	-12.2645
▁Hoạ	-12.2646
▁Mộc	-12.2646
▁Pepsi	-12.2646
▁Saturday	-12.2646
▁chuộng	-12.2646
▁cocktail	-12.2646
▁creep	-12.2646
▁eradicate	-12.2646
▁gluco	-12.2646
▁investigate	-12.2646
▁obtain	-12.2646
▁temple	-12.2646
▁vacuum	-12.2646
▁vacation	-12.2646
▁Matthew	-12.2646
▁Pantheon	-12.2646
▁euro	-12.2646
Barack	-12.2646
▁puppet	-12.2646
▁proposition	-12.2646
▁monster	-12.2646
▁MoMA	-12.2646
▁competi	-12.2646
▁tomato	-12.2646
▁girlfriend	-12.2646
▁heritage	-12.2646
▁bombsight	-12.2646
▁Bonnie	-12.2646
▁redesign	-12.2646
▁spare	-12.2646
▁loving	-12.2646
▁improvisation	-12.2647
▁Wiki	-12.2647
▁SOPA	-12.2647
▁venture	-12.2648
▁stake	-12.2648
▁negotiation	-12.2648
▁magician	-12.2648
▁Yale	-12.2649
▁bleed	-12.2649
▁authors	-12.2649
-2	-12.2649
▁dependenc	-12.2649
▁dragg	-12.2649
pler	-12.265
▁shout	-12.265
▁1800	-12.265
▁frontier	-12.2652
▁dời	-12.2652
▁Rather	-12.2652
▁xẻ	-12.2656
▁AR	-12.2657
▁punch	-12.2657
▁1,500	-12.2657
▁Alf	-12.2658
▁quăng	-12.2658
▁Gayl	-12.2659
▁guns	-12.266
▁confine	-12.2661
▁deepest	-12.2661
viv	-12.2662
▁ngoạn	-12.2662
erence	-12.2666
▁momentum	-12.2666
▁Tara	-12.2666
chan	-12.267
▁astronomer	-12.2671
lapse	-12.2674
▁horizontal	-12.2679
▁ngả	-12.268
aged	-12.2681
▁nứ	-12.2681
▁degrad	-12.2683
▁quantit	-12.2685
▁cua	-12.2685
▁resolution	-12.2686
▁cò	-12.2687
▁Neanderthals	-12.2688
▁lấn	-12.2689
Ex	-12.269
ED	-12.2699
▁Trí	-12.2704
▁foods	-12.2712
▁Korean	-12.2714
▁advocate	-12.2714
57	-12.2725
▁mar	-12.273
unch	-12.2736
▁Băng	-12.2736
▁Woo	-12.2737
▁sale	-12.274
▁surgeons	-12.2742
uthern	-12.2754
▁heavi	-12.2758
▁Kare	-12.277
pel	-12.2772
atory	-12.2786
▁dare	-12.2797
▁critic	-12.2824
▁Gand	-12.2826
iện	-12.2827
▁Col	-12.2829
▁Gree	-12.283
press	-12.2832
stock	-12.2846
▁Walk	-12.2848
▁readers	-12.2855
▁jumped	-12.2865
▁Medica	-12.2868
aware	-12.288
▁cope	-12.2881
▁realm	-12.2887
▁cue	-12.2891
ope	-12.2896
ef	-12.2897
SG	-12.29
▁Shir	-12.2906
▁integr	-12.2907
▁só	-12.291
aving	-12.2911
assembl	-12.2914
▁Sur	-12.2923
▁phớ	-12.2939
▁controvers	-12.2941
▁Williams	-12.2943
boo	-12.2945
▁Seven	-12.2947
▁dictator	-12.2949
▁Chernobyl	-12.2949
▁Goliath	-12.2949
▁astronaut	-12.2949
▁caregiver	-12.2949
▁cắn	-12.2949
▁deliberate	-12.2949
▁democratiz	-12.2949
▁expense	-12.2949
▁graffiti	-12.2949
▁helmet	-12.2949
▁humanitarian	-12.2949
▁progeri	-12.2949
▁remix	-12.2949
▁syringe	-12.2949
▁warrior	-12.2949
▁minimum	-12.2949
▁scheme	-12.2949
▁ultrasound	-12.2949
▁neocort	-12.2949
▁Caltech	-12.2949
▁minus	-12.2949
▁reclaim	-12.2949
▁exposure	-12.2949
▁triangle	-12.2949
▁chronic	-12.2949
▁Italian	-12.295
▁oven	-12.295
▁batteries	-12.295
▁galler	-12.295
▁generic	-12.2951
▁Milk	-12.2951
▁oxi	-12.2951
▁vibration	-12.2951
▁veil	-12.2951
▁fireflies	-12.2951
▁grabb	-12.2951
▁compassionate	-12.2951
▁Meyer	-12.2951
▁progressive	-12.2951
▁penis	-12.2952
▁Pink	-12.2952
▁chuối	-12.2952
▁adaptation	-12.2952
rr	-12.2953
▁Gô	-12.2955
▁downtown	-12.2955
▁cartoonist	-12.2956
▁Bil	-12.2956
▁lobe	-12.2957
▁educator	-12.2957
▁Shar	-12.2958
▁Kí	-12.2959
ju	-12.2959
▁khử	-12.296
▁loose	-12.2961
cratch	-12.2962
▁administrati	-12.2964
▁stunning	-12.2966
eek	-12.2976
▁shap	-12.2976
▁Fred	-12.2977
ried	-12.2977
▁deaf	-12.2977
▁tạc	-12.298
▁tile	-12.298
▁Fran	-12.298
▁helpless	-12.2982
▁900	-12.2982
perm	-12.2982
▁hardest	-12.2984
arter	-12.2985
▁suố	-12.2986
▁realistic	-12.2987
▁thỏ	-12.2996
▁Arabia	-12.3002
ruyền	-12.3004
tler	-12.3007
▁meta	-12.3008
castle	-12.3008
▁gase	-12.3008
▁align	-12.3012
▁Wood	-12.3015
▁vù	-12.3023
▁nhọ	-12.3029
mét	-12.303
▁Russe	-12.3033
iel	-12.3034
bell	-12.3037
▁relation	-12.3037
▁ỏi	-12.3046
▁Thuậ	-12.3053
▁collaborate	-12.3058
▁camps	-12.3058
▁preserv	-12.306
ake	-12.3062
▁circulat	-12.3068
▁Para	-12.307
▁tước	-12.3073
▁Job	-12.3073
▁47	-12.3076
▁cookie	-12.3077
▁nhát	-12.3081
▁110	-12.3082
▁provider	-12.3086
▁kiế	-12.3091
▁Apr	-12.3093
▁radi	-12.3107
ase	-12.3117
▁anatom	-12.3119
vis	-12.3119
▁assemble	-12.3123
▁wage	-12.3125
▁Dal	-12.3131
world	-12.3156
▁scare	-12.3157
master	-12.316
aging	-12.316
MG	-12.3161
bean	-12.3161
▁chemist	-12.317
▁Cap	-12.3175
urg	-12.3179
▁cớ	-12.3182
bian	-12.3182
cker	-12.3184
▁staring	-12.3188
▁195	-12.3189
▁practic	-12.3193
▁abundan	-12.3197
▁hut	-12.3198
▁Diet	-12.32
▁tú	-12.3201
enture	-12.3205
erald	-12.3206
▁trệ	-12.3209
▁alarm	-12.3213
▁jam	-12.3214
óng	-12.322
▁má	-12.3224
▁tớ	-12.3226
▁continuous	-12.3233
▁bust	-12.3236
▁360	-12.3237
▁Rub	-12.3241
▁god	-12.3243
▁badly	-12.3245
▁toys	-12.3247
▁ủ	-12.3251
▁15-	-12.3252
▁Under	-12.3255
▁bì	-12.3257
▁convict	-12.3259
lihood	-12.326
▁Nico	-12.326
ambia	-12.3261
▁scholar	-12.3261
▁champion	-12.3261
▁deforest	-12.3261
▁Absolute	-12.3262
▁Guatemala	-12.3262
▁Odysse	-12.3262
▁Office	-12.3262
▁Tahrir	-12.3262
▁appreciati	-12.3262
▁authoritarian	-12.3262
▁blob	-12.3262
▁elevate	-12.3262
▁encouraging	-12.3262
▁episode	-12.3262
▁leopard	-12.3262
▁striking	-12.3262
▁visceral	-12.3262
▁Business	-12.3262
▁envelope	-12.3262
▁Oscar	-12.3262
▁Mountain	-12.3262
▁Small	-12.3262
▁Euro	-12.3262
▁occupy	-12.3262
▁thốn	-12.3262
▁drunk	-12.3262
▁inflation	-12.3262
▁Wonder	-12.3262
▁destination	-12.3262
▁tolerance	-12.3262
▁shepherd	-12.3262
▁meditation	-12.3262
▁shore	-12.3262
▁mineral	-12.3262
cha	-12.3263
▁addiction	-12.3263
▁civilian	-12.3263
▁modest	-12.3263
▁Hope	-12.3264
▁đạm	-12.3264
▁wow	-12.3264
▁Hanna	-12.3264
.8	-12.3266
▁assign	-12.3266
▁metric	-12.3266
▁correlation	-12.3267
▁toast	-12.3267
▁Brand	-12.3267
▁chạp	-12.3267
witzer	-12.3267
▁Year	-12.3267
untu	-12.3268
▁TEDWomen	-12.3268
▁Stop	-12.3269
▁hint	-12.327
▁philosophical	-12.327
▁fatal	-12.327
wire	-12.3271
▁brick	-12.3272
▁Helen	-12.3272
▁intens	-12.3273
▁pointed	-12.3273
▁Start	-12.3275
▁Pretty	-12.3277
94	-12.3278
▁Building	-12.3279
▁eco	-12.328
▁propos	-12.328
▁trap	-12.3287
▁interior	-12.3288
▁Sebastia	-12.3288
▁Angel	-12.329
makers	-12.329
▁summarize	-12.3296
▁aunt	-12.3296
▁spreads	-12.3299
DR	-12.3301
▁cọc	-12.3305
▁Esse	-12.3305
▁mono	-12.3307
▁pleasant	-12.3311
arry	-12.3313
▁Lis	-12.3318
▁phả	-12.3322
▁formal	-12.3323
▁bless	-12.3326
▁axe	-12.3331
▁beef	-12.3334
▁Va	-12.3338
▁Giữ	-12.3354
▁solo	-12.3356
ear	-12.3358
▁monitoring	-12.3359
▁tar	-12.3362
nim	-12.3368
▁PC	-12.3372
▁slum	-12.3373
▁yards	-12.3373
▁Khác	-12.338
▁transmitt	-12.3382
▁fundrais	-12.3382
▁12-	-12.3385
▁hoi	-12.3386
▁bull	-12.3389
▁maker	-12.3395
▁Lama	-12.3399
onia	-12.3403
gestion	-12.3403
▁Justin	-12.3408
ẹp	-12.3412
▁450	-12.3418
▁Billy	-12.3419
▁Down	-12.3423
▁Gri	-12.3425
▁vã	-12.3426
nick	-12.3426
▁seeming	-12.3427
▁cleaner	-12.3428
ways	-12.3431
ancy	-12.3432
▁ward	-12.3443
▁worrying	-12.3454
▁minorit	-12.3456
rity	-12.3458
▁luâ	-12.3461
style	-12.347
▁Cà	-12.3488
▁eliminat	-12.3489
▁ngạ	-12.3496
rô	-12.3501
▁Say	-12.3502
và	-12.3507
▁Leo	-12.3507
▁Mathematica	-12.3509
▁lit	-12.3515
hou	-12.3519
▁bệ	-12.3522
▁hoo	-12.3529
19	-12.3533
▁phàn	-12.3533
▁regulate	-12.3539
▁cla	-12.3541
12	-12.3544
▁cor	-12.3548
▁summar	-12.3549
▁MR	-12.3557
▁entit	-12.3568
iley	-12.3577
▁cello	-12.3577
▁gener	-12.3578
▁investigati	-12.3581
▁autonom	-12.3584
nformation	-12.3584
▁Similar	-12.3584
▁commission	-12.3584
▁inhibit	-12.3584
▁1989	-12.3584
▁PIPA	-12.3584
▁Tennessee	-12.3584
▁famine	-12.3584
▁irrational	-12.3584
▁nộp	-12.3584
▁scrap	-12.3584
▁secular	-12.3584
▁stomach	-12.3584
▁territor	-12.3584
▁transistor	-12.3584
▁Bloom	-12.3584
▁Glass	-12.3584
▁Video	-12.3584
▁storyteller	-12.3584
▁Anthon	-12.3584
▁Type	-12.3584
▁vivid	-12.3584
▁Natural	-12.3584
▁distort	-12.3584
▁Studio	-12.3584
▁empire	-12.3584
▁enforce	-12.3584
▁Ariel	-12.3584
▁Nazi	-12.3584
▁spike	-12.3584
▁Brenda	-12.3584
▁feminist	-12.3585
▁chamber	-12.3585
▁Rich	-12.3585
ẳn	-12.3585
▁xốp	-12.3586
▁Dennis	-12.3586
jev	-12.3587
▁Online	-12.3587
▁obsession	-12.3588
▁MBA	-12.3589
▁sờ	-12.3589
▁coverage	-12.3589
▁Serge	-12.359
▁negotiate	-12.359
▁selfish	-12.3591
▁Canadian	-12.3593
▁Turns	-12.3593
▁Stein	-12.3594
▁masse	-12.3596
▁MP	-12.3598
▁realization	-12.3598
▁harmon	-12.36
▁dào	-12.36
▁intrinsic	-12.36
▁Biospher	-12.3602
▁broc	-12.3602
▁Max	-12.3612
▁daf	-12.3613
▁Roman	-12.3615
▁nonviolen	-12.3615
ander	-12.3616
▁Pass	-12.3618
▁Bat	-12.3618
▁môt	-12.3619
lmost	-12.3619
▁phenomena	-12.3619
▁Rocket	-12.3621
▁opens	-12.3621
▁Intel	-12.3624
▁bask	-12.3626
▁thừng	-12.3627
▁disability	-12.3629
▁corti	-12.3631
▁Agn	-12.3636
▁Cla	-12.3637
▁discoveries	-12.3637
▁referr	-12.364
ops	-12.3643
ulation	-12.3645
OS	-12.3647
▁stimulate	-12.3651
▁entry	-12.3652
▁Treat	-12.3656
ợt	-12.3659
▁unw	-12.3666
ental	-12.3667
79	-12.3668
▁regenerati	-12.3668
active	-12.3668
▁Anna	-12.367
▁chimp	-12.3673
▁manufacturer	-12.3678
▁trơ	-12.3679
▁Lester	-12.3692
▁fuse	-12.3702
hol	-12.3702
▁Maria	-12.371
rate	-12.3716
▁đan	-12.3718
ME	-12.372
▁sta	-12.372
▁deposit	-12.3725
▁77	-12.3726
▁Trò	-12.373
▁combin	-12.3736
▁Fort	-12.3738
▁Phil	-12.3743
õi	-12.3744
▁branch	-12.3746
▁jar	-12.3748
▁cưỡi	-12.3751
▁switched	-12.3751
ept	-12.3757
▁Inter	-12.3757
oà	-12.3757
▁cu	-12.3763
▁Row	-12.3774
▁gán	-12.3778
port	-12.378
▁Robbi	-12.3787
real	-12.3789
▁oxide	-12.3791
ệch	-12.3794
▁approache	-12.3795
▁bỉ	-12.3797
ime	-12.3798
▁78	-12.3806
shirt	-12.3811
▁ả	-12.3811
income	-12.3812
craft	-12.3814
ado	-12.3824
▁Tal	-12.3827
election	-12.3829
▁xen	-12.3834
▁visualize	-12.3837
fire	-12.3853
▁significan	-12.3854
▁valid	-12.3861
▁ngó	-12.3863
▁recycle	-12.3877
▁Kay	-12.3878
▁comp	-12.3882
otto	-12.3883
▁Try	-12.3885
▁Cr	-12.3892
.6	-12.3906
▁mines	-12.3914
▁communicati	-12.3914
▁mác	-12.3915
▁voca	-12.3915
▁compute	-12.3915
▁panic	-12.3916
▁Journal	-12.3916
▁forgive	-12.3916
▁Know	-12.3917
▁Hiroshi	-12.3917
▁substantial	-12.3917
▁Arkansas	-12.3917
▁Cooper	-12.3917
▁Hopkins	-12.3917
▁Orleans	-12.3917
▁Pennsylvania	-12.3917
▁Sleep	-12.3917
▁Telescope	-12.3917
▁Voyage	-12.3917
▁ambulance	-12.3917
▁executive	-12.3917
▁fantasy	-12.3917
▁historian	-12.3917
▁janitor	-12.3917
▁shatter	-12.3917
▁simulate	-12.3917
▁tribal	-12.3917
▁yeast	-12.3917
upreme	-12.3917
▁Toraja	-12.3917
▁jellyfish	-12.3917
▁theoretical	-12.3917
▁nightmare	-12.3917
▁salad	-12.3917
▁multiply	-12.3918
▁Still	-12.3918
▁kilogram	-12.3918
▁stabilize	-12.3918
▁polymer	-12.3918
RNA	-12.3918
▁Report	-12.3918
▁Libya	-12.3918
▁Garden	-12.3918
▁gamma	-12.3918
▁Ahmed	-12.3918
▁Mahat	-12.3918
▁premise	-12.3918
ARPA	-12.3918
▁transit	-12.3918
▁selective	-12.3919
▁Carib	-12.3919
▁unfold	-12.3919
▁preparation	-12.3919
▁blogg	-12.3919
▁Malco	-12.3919
plex	-12.3919
▁vỉ	-12.3919
▁xị	-12.3919
▁invitation	-12.392
▁Twenty	-12.392
▁Brook	-12.392
▁captain	-12.392
▁distinction	-12.3921
▁Jake	-12.3921
▁Hmm	-12.3921
▁translator	-12.3921
▁descend	-12.3921
▁wo	-12.3921
▁deck	-12.3923
▁frustration	-12.3923
▁naive	-12.3924
▁therapist	-12.3925
▁Alto	-12.3925
▁Minist	-12.3926
▁Miller	-12.3928
▁Tru	-12.3929
▁60,000	-12.393
nel	-12.3932
▁Master	-12.3932
▁knife	-12.3934
▁pond	-12.3938
▁vary	-12.3938
tangible	-12.3938
▁84	-12.3939
▁extinction	-12.3941
own	-12.3942
lept	-12.3942
▁carrot	-12.3942
▁Plan	-12.3946
▁INC	-12.3947
▁mesh	-12.3948
▁hao	-12.3949
▁semi	-12.3951
▁guid	-12.3952
▁tactic	-12.3955
▁gắt	-12.3957
Yêu	-12.3958
▁les	-12.3958
▁calo	-12.396
▁Main	-12.3968
NG	-12.3972
▁Burn	-12.3976
▁useless	-12.3978
▁optical	-12.3983
rus	-12.3983
▁processor	-12.3984
▁Kan	-12.3997
▁Bồ	-12.3999
▁Trice	-12.4001
▁sens	-12.401
horn	-12.4017
▁Tớ	-12.4022
take	-12.4025
▁camel	-12.403
▁equit	-12.403
▁Căn	-12.4036
teen	-12.4044
▁nail	-12.4045
moor	-12.4053
▁toạ	-12.4054
ara	-12.4054
▁dropping	-12.4056
▁vocal	-12.4058
dol	-12.4059
▁voter	-12.4062
▁Post	-12.4064
▁khoác	-12.4079
▁Cole	-12.4086
▁slip	-12.4089
▁longe	-12.409
▁Countr	-12.4091
▁conceptual	-12.4091
29	-12.4095
30	-12.4101
▁Wire	-12.4102
tial	-12.4108
▁Rama	-12.4109
ghen	-12.4109
▁53	-12.411
iger	-12.4113
▁CE	-12.4118
▁IQ	-12.4121
▁cooling	-12.4121
▁Turk	-12.4138
▁spinn	-12.4148
ỏi	-12.4157
itra	-12.4158
▁z	-12.4161
▁rip	-12.4174
▁chase	-12.4175
nish	-12.4176
300	-12.4176
▁impressi	-12.418
▁tent	-12.418
▁kg	-12.4183
▁82	-12.4187
▁Kha	-12.419
▁redefine	-12.4191
▁Git	-12.4191
▁tooth	-12.4197
▁Bab	-12.4212
▁lover	-12.4232
shape	-12.4234
▁sav	-12.4244
▁infections	-12.4257
apa	-12.4261
▁Democrat	-12.4261
▁disagree	-12.4261
▁Republic	-12.4262
▁slave	-12.4262
▁accura	-12.4262
▁1986	-12.4262
▁Accordi	-12.4262
▁Buddha	-12.4262
▁Buddhis	-12.4262
▁Charlotte	-12.4262
▁Connecticut	-12.4262
▁Norwegian	-12.4262
▁Publi	-12.4262
▁Sioux	-12.4262
▁Societ	-12.4262
▁diagnostic	-12.4262
▁dilemma	-12.4262
▁guitar	-12.4262
▁immigrant	-12.4262
▁obsolet	-12.4262
▁octopus	-12.4262
▁unfair	-12.4262
▁đặn	-12.4262
▁gớm	-12.4262
▁revelation	-12.4262
▁victor	-12.4262
▁pirate	-12.4262
▁reinforce	-12.4262
▁lump	-12.4262
▁multinational	-12.4262
▁accent	-12.4262
▁Canyon	-12.4263
▁skeleton	-12.4263
▁symphon	-12.4263
▁intersection	-12.4263
▁arrangement	-12.4263
▁delete	-12.4264
▁visualization	-12.4264
▁probe	-12.4265
▁insert	-12.4265
▁mild	-12.4265
▁integration	-12.4266
▁angel	-12.4267
▁passage	-12.4269
▁schedule	-12.4272
▁Stockh	-12.4272
▁prop	-12.4274
▁queen	-12.4275
▁gạo	-12.4277
▁Mean	-12.4277
▁fertilizer	-12.4279
▁discriminati	-12.4279
▁Kenyan	-12.428
SD	-12.4283
▁Hiể	-12.4283
▁para	-12.4285
▁aspiration	-12.4286
▁vự	-12.4288
▁Browne	-12.4288
▁lé	-12.4288
▁2013	-12.4289
▁mú	-12.4293
▁baker	-12.4298
▁Bono	-12.4298
▁Hồ	-12.4301
▁194	-12.4302
ltan	-12.4305
▁animate	-12.431
▁playful	-12.4314
▁lawn	-12.4317
ups	-12.4318
▁clari	-12.4318
▁Az	-12.4318
▁Mã	-12.4319
▁mud	-12.4322
rne	-12.4323
▁stare	-12.4331
▁6,000	-12.4333
▁ft	-12.4333
▁Pun	-12.4337
▁Saul	-12.4337
▁BP	-12.4343
Của	-12.4347
▁poke	-12.4349
▁ừ	-12.4352
▁Hard	-12.4354
▁Whoa	-12.4363
▁curl	-12.4365
▁cage	-12.4372
▁á	-12.4373
ạc	-12.4377
▁Brad	-12.4382
▁ngoặ	-12.4382
iffe	-12.4388
▁dome	-12.4395
▁tro	-12.4398
efficient	-12.4398
▁triple	-12.44
▁impose	-12.4403
▁rent	-12.4412
▁Ask	-12.4413
▁đốn	-12.4414
▁Wu	-12.4414
▁settl	-12.4416
▁lever	-12.4418
haz	-12.4418
cho	-12.4429
▁boundary	-12.4432
kar	-12.4435
▁Tỉ	-12.4435
▁SA	-12.4436
step	-12.4438
▁reader	-12.4438
▁branche	-12.4443
▁Gra	-12.4446
▁ngủi	-12.4446
▁Fly	-12.4447
▁promis	-12.4452
▁publisher	-12.4462
eil	-12.4462
▁cru	-12.4466
▁impos	-12.4467
bot	-12.4467
▁toxin	-12.4469
cher	-12.447
▁sue	-12.4472
pr	-12.4474
▁phu	-12.4478
▁dies	-12.4484
▁contribut	-12.4489
68	-12.4493
dney	-12.4493
ller	-12.4494
chia	-12.4502
▁SB	-12.451
▁Mul	-12.4513
child	-12.4518
▁patholog	-12.4519
uôn	-12.4521
▁Dep	-12.4525
▁68	-12.4527
print	-12.4533
▁sá	-12.4535
beat	-12.4538
olm	-12.4547
ogether	-12.4547
▁Vel	-12.4551
rapped	-12.4554
undan	-12.4555
ại	-12.4558
▁Ag	-12.4559
▁Alis	-12.4561
afi	-12.4562
▁mìn	-12.4563
five	-12.4566
var	-12.4568
bao	-12.457
vy	-12.4571
▁awake	-12.4573
▁packag	-12.4577
lia	-12.4579
bin	-12.4587
▁00	-12.4591
ounce	-12.4593
EP	-12.4596
▁spit	-12.4605
▁Buy	-12.4606
▁xo	-12.4607
▁anesthesi	-12.4614
ndura	-12.4616
efense	-12.4618
▁stigma	-12.4618
▁punish	-12.4619
▁Hungar	-12.4619
▁Achill	-12.4619
▁Aurora	-12.4619
▁CIA	-12.4619
▁Computer	-12.4619
▁Freud	-12.4619
▁Parliament	-12.4619
▁Rezero	-12.4619
▁absence	-12.4619
▁anxious	-12.4619
▁artifact	-12.4619
▁calculator	-12.4619
▁calendar	-12.4619
▁endeavor	-12.4619
▁occupation	-12.4619
▁orgasm	-12.4619
▁remittance	-12.4619
▁stadium	-12.4619
▁welfare	-12.4619
▁Jacque	-12.4619
▁depict	-12.4619
▁encrypt	-12.4619
▁regain	-12.4619
▁Secur	-12.4619
▁antenna	-12.4619
▁crawl	-12.4619
▁cybercriminal	-12.4619
▁funeral	-12.4619
▁Photoshop	-12.4619
▁envision	-12.4619
▁erotic	-12.4619
▁conquer	-12.4619
▁Thirty	-12.462
▁Deep	-12.462
▁Student	-12.462
▁Education	-12.462
▁impair	-12.462
▁steam	-12.462
▁delicious	-12.462
▁Wilson	-12.462
▁dispos	-12.462
▁relief	-12.462
▁biodiversity	-12.462
▁infectious	-12.462
▁loyal	-12.462
▁trivial	-12.462
▁uncover	-12.462
▁Lanka	-12.462
▁ladder	-12.462
▁retain	-12.462
▁candle	-12.4621
▁Donald	-12.4621
▁workshop	-12.4621
▁minimal	-12.4621
▁innovator	-12.4621
▁butterfl	-12.4621
▁hal	-12.4621
▁stimulation	-12.4621
▁thread	-12.4622
▁contest	-12.4622
▁crank	-12.4623
jec	-12.4623
▁glove	-12.4623
▁fungi	-12.4624
▁blink	-12.4624
▁Monday	-12.4626
aire	-12.4626
▁arbitrar	-12.4627
▁Osa	-12.4629
▁Amsterdam	-12.4629
▁coordinate	-12.4629
▁Hindu	-12.4629
▁67	-12.463
▁glue	-12.463
▁addict	-12.4631
▁Bayes	-12.4632
▁HP	-12.4632
▁Learn	-12.4632
▁500,000	-12.4634
▁unsee	-12.4635
xter	-12.4635
▁lowest	-12.4637
rump	-12.4638
▁seventh	-12.4639
▁arc	-12.4641
▁celebrity	-12.4643
▁Tso	-12.4644
tha	-12.4649
▁beaten	-12.465
▁apologiz	-12.4651
▁76	-12.4656
▁Game	-12.4658
▁nhả	-12.4661
▁chord	-12.4661
▁celebrat	-12.4662
▁BR	-12.4669
lian	-12.4669
tress	-12.4675
▁neurological	-12.4676
▁dating	-12.4684
▁longest	-12.4685
▁Hamp	-12.4686
▁scarce	-12.4688
▁trớ	-12.4695
▁Indiana	-12.4696
▁Wang	-12.4701
uga	-12.4705
▁owe	-12.4707
live	-12.4707
▁satisfact	-12.4709
thy	-12.471
sburg	-12.4713
saw	-12.4715
▁sur	-12.4724
itha	-12.4729
AG	-12.4731
▁Mira	-12.4734
ồ	-12.4748
▁Add	-12.4754
▁usage	-12.4756
▁Nor	-12.4759
▁Too	-12.4761
▁shoe	-12.4768
pos	-12.477
▁binar	-12.4772
16	-12.4775
▁hir	-12.4777
AC	-12.4777
MF	-12.478
▁Ste	-12.4782
▁Mol	-12.4784
▁import	-12.4785
aca	-12.4786
▁acre	-12.4786
▁kite	-12.4791
ubar	-12.4802
▁Way	-12.4804
▁winds	-12.4808
▁emotionally	-12.4816
15	-12.4816
▁đu	-12.4819
ended	-12.4819
Fi	-12.4827
▁Swed	-12.4834
run	-12.4838
mination	-12.4842
ơc	-12.4848
orta	-12.4848
▁Linu	-12.4864
▁Ash	-12.4866
▁settle	-12.4867
▁wander	-12.4878
erial	-12.4878
wide	-12.4879
▁đồn	-12.4879
▁Music	-12.4881
▁ngh	-12.4887
food	-12.4889
edge	-12.4889
▁nucle	-12.4892
size	-12.4895
▁fade	-12.4899
ssociation	-12.4911
uồn	-12.4919
▁admire	-12.4922
▁sketch	-12.4923
manda	-12.4924
Qa	-12.4926
▁constrain	-12.4926
eller	-12.4927
▁Sta	-12.4927
▁unite	-12.4946
háo	-12.4949
▁ecolog	-12.4951
▁Eli	-12.4959
month	-12.496
bur	-12.4961
▁Anne	-12.4963
aste	-12.4963
▁gam	-12.4963
▁landing	-12.4964
▁improvise	-12.497
13	-12.4971
▁geograph	-12.4974
▁thermo	-12.4974
▁manipulat	-12.4975
▁neo	-12.4977
▁mat	-12.498
▁Rap	-12.4981
▁thinker	-12.4985
▁Bach	-12.4985
▁restrict	-12.4986
ouncil	-12.4986
▁drama	-12.4988
▁tempt	-12.4989
xcept	-12.4989
▁maxim	-12.499
▁Machine	-12.499
▁Nội	-12.499
▁Rhode	-12.499
▁Shaw	-12.499
▁Transition	-12.499
▁beneficia	-12.499
▁buzz	-12.499
▁deficit	-12.499
▁distinguish	-12.499
▁enlighten	-12.499
▁exquisite	-12.499
▁jungle	-12.499
▁parachute	-12.499
▁pesticide	-12.499
▁reputation	-12.499
▁sovereign	-12.499
▁tsunami	-12.499
▁Critic	-12.499
▁IKE	-12.499
▁Netflix	-12.499
▁Papua	-12.499
▁Scoop	-12.499
▁Tweet	-12.499
▁default	-12.499
▁gross	-12.499
▁monument	-12.499
▁pencil	-12.499
▁quầy	-12.499
▁slope	-12.499
▁unveil	-12.499
▁fault	-12.499
▁orphan	-12.499
▁smash	-12.499
▁opposition	-12.499
▁Tower	-12.499
▁proceed	-12.499
▁Window	-12.499
▁bypass	-12.499
▁Economist	-12.499
▁bucket	-12.499
▁Kiva	-12.499
▁libert	-12.499
▁Development	-12.499
▁Bonnet	-12.499
▁introduction	-12.499
▁sidewalk	-12.4991
▁superpower	-12.4991
▁assessment	-12.4991
▁index	-12.4991
▁purple	-12.4991
▁Shah	-12.4991
▁lethal	-12.4991
▁settlement	-12.4991
▁shove	-12.4991
▁pubert	-12.4991
▁decent	-12.4991
▁persist	-12.4991
▁conscience	-12.4992
▁weakness	-12.4992
▁nhốt	-12.4992
▁approximate	-12.4992
▁browser	-12.4994
▁bonus	-12.4994
▁constitution	-12.4995
▁huỳ	-12.4995
▁marrow	-12.4995
▁petal	-12.4997
▁stain	-12.4998
▁adolescence	-12.5
etas	-12.5
▁socio	-12.5
▁Fall	-12.5
▁overlap	-12.5007
▁hopeless	-12.5009
▁Sex	-12.5011
▁plea	-12.5012
▁nực	-12.5014
▁nghê	-12.5017
▁Pre	-12.5017
▁dece	-12.5018
▁fruits	-12.5019
▁há	-12.5019
je	-12.5019
▁thối	-12.502
▁patch	-12.5022
▁ôn	-12.5022
atops	-12.5028
▁Sad	-12.5028
▁mon	-12.503
▁professors	-12.5033
▁185	-12.5037
▁clon	-12.5038
rio	-12.504
ợi	-12.5042
▁seize	-12.5043
▁ventilat	-12.5045
▁informal	-12.5047
care	-12.5049
▁Coh	-12.5052
▁TH	-12.5054
▁intangible	-12.5055
▁Gene	-12.5056
▁Pran	-12.5056
▁Tô	-12.5061
▁Terr	-12.5062
▁hunter	-12.5062
▁yell	-12.5063
train	-12.5064
▁surf	-12.5066
▁roman	-12.5068
▁exhaust	-12.5068
▁Swa	-12.5068
▁token	-12.5069
▁sương	-12.5076
usse	-12.5076
50,000	-12.5079
▁bats	-12.508
49	-12.508
his	-12.5085
shar	-12.5094
▁remotely	-12.5099
▁Las	-12.51
marin	-12.5102
▁Stand	-12.5104
▁innovate	-12.5105
▁keys	-12.5108
100	-12.5111
dding	-12.5112
▁Colli	-12.5113
44	-12.5117
▁Gran	-12.5119
▁quẩ	-12.5119
▁mature	-12.5127
nders	-12.5134
▁Chu	-12.5136
▁Gan	-12.515
▁accidental	-12.5152
▁mold	-12.5156
▁yog	-12.5158
estate	-12.5162
Spee	-12.5169
SF	-12.5176
▁Gil	-12.519
▁compos	-12.5194
▁intervene	-12.52
▁choir	-12.52
eau	-12.5201
▁kép	-12.5204
▁khiết	-12.5211
▁Khố	-12.5216
▁farming	-12.5218
▁woo	-12.522
▁Basi	-12.5223
▁stimul	-12.5231
▁submit	-12.5235
▁Dai	-12.5241
▁chat	-12.5243
illi	-12.5247
▁láng	-12.5248
▁Vinc	-12.5249
▁herd	-12.5252
▁rợ	-12.5254
▁Best	-12.5254
found	-12.5254
▁declin	-12.526
scal	-12.5261
▁bam	-12.5265
vascular	-12.5266
spread	-12.5269
him	-12.527
bone	-12.5278
▁announce	-12.5279
▁sequenc	-12.5281
▁advanc	-12.5282
▁Nigerian	-12.5283
14	-12.5288
▁McK	-12.529
break	-12.529
▁photon	-12.529
▁Lind	-12.5295
had	-12.5298
minded	-12.5299
▁corners	-12.5302
HC	-12.5303
▁dishe	-12.5303
rill	-12.5305
▁Thom	-12.5308
▁mastery	-12.5309
ome	-12.532
▁Baha	-12.532
▁Hand	-12.532
▁Fair	-12.5322
▁render	-12.5328
▁grant	-12.5329
▁productiv	-12.5331
▁Marsha	-12.5336
wear	-12.5337
burg	-12.5339
ứt	-12.5342
rman	-12.5342
▁migrate	-12.5343
▁convention	-12.5345
lov	-12.5348
▁cou	-12.5354
bre	-12.5354
▁Bel	-12.5357
▁Naj	-12.536
▁kiddi	-12.5366
hole	-12.5367
▁cardio	-12.5373
▁differ	-12.5374
▁Friend	-12.5374
▁Gapminder	-12.5374
▁Guardian	-12.5374
▁Hirsh	-12.5374
▁Hospital	-12.5374
▁Picasso	-12.5374
▁Scientist	-12.5374
▁System	-12.5374
▁Tamiflu	-12.5374
▁Virtual	-12.5374
▁acoustic	-12.5374
▁cathedral	-12.5374
▁dismiss	-12.5374
▁estrogen	-12.5374
▁exclusive	-12.5374
▁exponential	-12.5374
▁mammogram	-12.5374
▁pedestrian	-12.5374
▁penicillin	-12.5374
▁virgin	-12.5374
▁whisper	-12.5374
▁suýt	-12.5374
▁screw	-12.5374
▁mosque	-12.5374
▁shrink	-12.5374
▁encyclopedia	-12.5375
▁Barbar	-12.5375
▁undergraduate	-12.5375
▁Point	-12.5375
▁Minne	-12.5375
▁sufficient	-12.5375
▁Empire	-12.5375
▁haunt	-12.5375
▁Heather	-12.5375
▁Geoff	-12.5375
▁suspicious	-12.5375
▁dentist	-12.5375
▁Probab	-12.5375
riving	-12.5375
▁Simpl	-12.5375
▁diamond	-12.5376
▁radar	-12.5376
▁Democratic	-12.5376
▁posture	-12.5376
▁adaptive	-12.5376
▁iceberg	-12.5376
▁gót	-12.5376
▁phiện	-12.5376
▁slaughter	-12.5377
▁rig	-12.5377
▁anthropologist	-12.5377
▁encode	-12.5377
▁wins	-12.5377
▁Wide	-12.5378
▁subjective	-12.5378
▁alert	-12.5379
▁Danny	-12.5379
▁89	-12.5379
▁Seth	-12.538
▁rubber	-12.538
▁Java	-12.538
▁Nano	-12.5381
▁outdoor	-12.5381
▁Huck	-12.5381
▁proton	-12.5381
▁overlook	-12.5382
▁8,000	-12.5382
▁chunk	-12.5383
▁pants	-12.5384
▁melod	-12.5385
nthia	-12.5385
ennis	-12.5388
apped	-12.5389
▁Wales	-12.5389
▁Pilot	-12.5389
▁rear	-12.539
▁Monter	-12.5391
▁dune	-12.5392
▁chick	-12.5395
▁Shake	-12.5395
▁surger	-12.5396
▁Khó	-12.5397
▁bitter	-12.5399
▁owners	-12.5401
▁derive	-12.5402
▁Há	-12.5405
▁phenomenal	-12.5405
▁Tinh	-12.5405
▁eastern	-12.5408
▁91	-12.5414
▁Chia	-12.5419
▁donate	-12.5423
▁companion	-12.5425
core	-12.5425
▁dar	-12.543
die	-12.5431
▁NO	-12.5433
ult	-12.5434
▁Phố	-12.5434
rank	-12.5437
▁traffick	-12.5438
▁admir	-12.5445
70	-12.5447
▁Reg	-12.5447
▁demonstrat	-12.5453
▁abundant	-12.5454
▁bench	-12.5459
▁rotate	-12.5465
▁Bol	-12.5465
▁Rea	-12.5466
▁disrupti	-12.5467
▁Rad	-12.5467
▁nuclei	-12.5477
note	-12.548
▁Pr	-12.5483
▁TD	-12.5485
pound	-12.549
▁von	-12.549
▁Mass	-12.5494
▁opt	-12.5495
▁mega	-12.5498
▁earning	-12.5506
▁Ob	-12.5519
▁Cro	-12.5519
▁woods	-12.5524
▁cows	-12.5531
.7	-12.5534
▁Kins	-12.5544
▁flap	-12.5547
▁env	-12.5548
▁exot	-12.5551
oul	-12.5554
eur	-12.5559
gập	-12.5562
▁Bart	-12.5563
▁Top	-12.5566
▁detected	-12.5567
▁arous	-12.5569
▁dạn	-12.5572
avi	-12.5573
xy	-12.5576
atan	-12.5578
▁chử	-12.5582
berry	-12.5583
▁Mali	-12.5584
▁Trạ	-12.5586
▁contaminat	-12.5589
▁perceiv	-12.5592
▁Kos	-12.5601
▁ớt	-12.5606
▁taxe	-12.5608
▁dominate	-12.5617
▁shifts	-12.5618
▁Pac	-12.5622
▁barb	-12.5624
hời	-12.5628
▁warp	-12.5632
▁Hunt	-12.5643
quality	-12.5646
▁beep	-12.5649
grade	-12.566
▁assist	-12.566
▁Robins	-12.5661
▁Code	-12.5661
▁lucki	-12.5662
shift	-12.5669
economic	-12.5669
▁Chen	-12.5669
sense	-12.5671
effective	-12.5671
stair	-12.5671
ản	-12.5671
▁medi	-12.5672
▁disrupt	-12.5674
▁banker	-12.5678
▁Fra	-12.5678
▁Allen	-12.5679
▁decid	-12.568
fu	-12.568
eaten	-12.5683
▁Hadr	-12.5684
generat	-12.5693
vít	-12.5693
inux	-12.57
05	-12.5701
ện	-12.5708
▁patien	-12.5711
▁consen	-12.5721
▁storms	-12.5732
amie	-12.5734
▁loé	-12.5735
47	-12.5736
▁balls	-12.5744
▁filling	-12.575
▁Bí	-12.5751
▁Tech	-12.5758
▁mill	-12.5762
92	-12.5762
▁negotiat	-12.5764
▁39	-12.5767
▁Michel	-12.577
tched	-12.5771
▁possess	-12.5771
▁dominat	-12.5772
▁consult	-12.5773
▁trauma	-12.5774
▁coordinati	-12.5774
▁eradicati	-12.5774
▁polite	-12.5774
▁Civil	-12.5774
▁Democracy	-12.5774
▁Government	-12.5774
▁Malaysia	-12.5774
▁Massachusetts	-12.5774
▁Modern	-12.5774
▁alphabet	-12.5774
▁athletic	-12.5774
▁beekeeper	-12.5774
▁catastrophic	-12.5774
▁composition	-12.5774
▁configuration	-12.5774
▁execute	-12.5774
▁giầy	-12.5774
▁glorious	-12.5774
▁horrifi	-12.5774
▁horror	-12.5774
▁indicator	-12.5774
▁intimacy	-12.5774
▁mammograph	-12.5774
▁migrant	-12.5774
▁neglect	-12.5774
▁optimal	-12.5774
▁Gabriel	-12.5774
▁Reddit	-12.5774
▁existential	-12.5774
▁extensive	-12.5774
▁Galil	-12.5774
▁alumin	-12.5774
▁irrelevan	-12.5774
▁calculating	-12.5774
▁lawsuit	-12.5775
▁cooperative	-12.5775
▁Ottoman	-12.5775
▁Help	-12.5775
▁tởm	-12.5775
▁shredd	-12.5775
▁decode	-12.5775
▁shelve	-12.5775
▁grape	-12.5775
▁virut	-12.5775
▁1940	-12.5775
▁genital	-12.5775
▁legitimate	-12.5775
▁EEG	-12.5775
▁monk	-12.5775
▁xổ	-12.5776
▁xì	-12.5776
▁freeze	-12.5776
▁psychiatrist	-12.5777
▁Ukraine	-12.5777
▁Clear	-12.5778
▁del	-12.5778
▁Owen	-12.5778
▁Hunter	-12.5779
▁1,1	-12.578
▁greed	-12.578
▁mustard	-12.5782
▁nurture	-12.5783
▁JK	-12.5784
▁germ	-12.5785
▁quấn	-12.5789
▁Book	-12.5791
▁couch	-12.5792
cumen	-12.5794
sek	-12.5794
illenni	-12.5794
▁Mellon	-12.5798
▁screening	-12.5803
▁Viking	-12.5807
▁captur	-12.5811
▁continuously	-12.5812
▁centimeter	-12.5816
ption	-12.5825
▁Sr	-12.5826
AL	-12.5835
▁Jerem	-12.5838
▁ambition	-12.5838
▁Full	-12.5838
▁reminder	-12.5839
▁ease	-12.5839
▁cuts	-12.5846
▁stat	-12.5846
▁chains	-12.5848
▁Rot	-12.5848
▁54	-12.585
▁1.6	-12.5851
▁boo	-12.5852
▁Pia	-12.5862
▁nois	-12.5865
▁pest	-12.5869
▁kè	-12.5871
▁phồn	-12.5872
▁Bal	-12.5882
▁union	-12.5883
▁Step	-12.5884
▁diễ	-12.5885
▁Perc	-12.589
ác	-12.5896
▁Chop	-12.5898
▁revolutionar	-12.5906
alactic	-12.5906
gun	-12.5917
▁thoughtful	-12.592
▁rạc	-12.592
▁strap	-12.5923
▁pregnanc	-12.5924
mile	-12.5927
▁resilien	-12.5929
▁sands	-12.5933
blowing	-12.5933
▁lips	-12.5936
▁deny	-12.594
finite	-12.5943
▁entr	-12.5948
▁Camp	-12.5952
54	-12.5958
zman	-12.5959
tub	-12.5961
ilia	-12.5963
ubble	-12.5963
▁1.4	-12.5964
▁trad	-12.5969
cially	-12.5975
▁performer	-12.5981
agement	-12.5984
lux	-12.5988
▁regional	-12.599
▁Greg	-12.5997
▁riches	-12.6
etter	-12.6001
▁Pen	-12.6005
▁Ep	-12.6006
▁5000	-12.6007
jury	-12.6007
ừ	-12.6009
inal	-12.6019
▁Guy	-12.6022
▁Harris	-12.6027
urek	-12.6032
drew	-12.6032
▁quo	-12.6037
grow	-12.6041
wick	-12.6044
▁Oz	-12.6047
▁Save	-12.6048
HO	-12.6057
iêng	-12.6058
FL	-12.6059
part	-12.606
▁Eri	-12.6061
▁Hur	-12.6063
frontal	-12.6085
conflict	-12.6086
massive	-12.6086
group	-12.6086
course	-12.6086
▁chem	-12.6086
Bay	-12.6086
polar	-12.6087
▁arena	-12.6088
osh	-12.6089
RS	-12.6093
▁loser	-12.61
▁def	-12.6104
▁publicly	-12.6106
▁Sadd	-12.6109
ựa	-12.611
ductive	-12.6116
km	-12.6117
▁cửu	-12.6121
▁bean	-12.6127
In	-12.6129
ecl	-12.613
rays	-12.6141
▁Tor	-12.6145
lcome	-12.6151
ipcar	-12.6154
▁casual	-12.6159
▁grip	-12.6162
▁displace	-12.6163
▁rail	-12.6167
17	-12.6167
▁Giấ	-12.6168
▁stu	-12.6169
band	-12.6171
ỉnh	-12.6172
▁precis	-12.6181
▁phà	-12.6187
▁McCa	-12.6189
▁arrange	-12.619
▁cerebr	-12.6191
▁stereo	-12.6191
▁Georgia	-12.6191
▁Illinois	-12.6191
▁Interesting	-12.6191
▁Philippine	-12.6191
▁Phillip	-12.6191
▁Pittsburgh	-12.6191
▁Roosevelt	-12.6191
▁bướu	-12.6191
▁catadore	-12.6191
▁cockroach	-12.6191
▁collision	-12.6191
▁declare	-12.6191
▁dispute	-12.6191
▁extremist	-12.6191
▁holiday	-12.6191
▁imperative	-12.6191
▁injustice	-12.6191
▁maneuver	-12.6191
▁orangutan	-12.6191
▁parliament	-12.6191
▁peanut	-12.6191
▁postcard	-12.6191
▁powder	-12.6191
▁principal	-12.6191
▁rậm	-12.6191
▁thorough	-12.6191
▁vầy	-12.6191
▁accompani	-12.6191
▁carpet	-12.6191
▁Neuman	-12.6191
▁Malawi	-12.6191
▁cream	-12.6191
▁jean	-12.6191
▁stumbl	-12.6191
▁prophet	-12.6191
▁rigid	-12.6191
▁supercomputer	-12.6191
▁Rita	-12.6191
▁Austria	-12.6191
▁protocol	-12.6191
▁illuminati	-12.6191
▁hostile	-12.6191
▁debri	-12.6191
▁entrance	-12.6191
▁cardiac	-12.6192
▁notebook	-12.6192
▁billboard	-12.6192
▁Glad	-12.6192
▁1918	-12.6192
▁instinctive	-12.6192
▁headache	-12.6192
▁1965	-12.6192
▁punishment	-12.6192
▁Nicole	-12.6192
▁Truth	-12.6193
▁spacecraft	-12.6193
▁pillar	-12.6193
▁tutor	-12.6193
▁cocaine	-12.6193
▁memorize	-12.6193
▁illustration	-12.6193
▁problematic	-12.6193
▁employment	-12.6193
▁novelty	-12.6193
▁2015	-12.6194
▁resonan	-12.6194
▁56	-12.6195
▁biotechnolog	-12.6195
▁Lou	-12.6197
▁Jas	-12.6199
▁outrage	-12.6199
▁Sound	-12.62
▁flute	-12.62
skirt	-12.62
onsider	-12.62
▁outbreak	-12.6201
▁erect	-12.6203
▁trailer	-12.6207
▁Death	-12.6208
▁compil	-12.621
▁Read	-12.6211
▁Walter	-12.6212
IM	-12.6213
▁Heart	-12.6214
ickr	-12.6219
▁Clark	-12.622
▁uh	-12.6222
▁nitro	-12.6223
▁periodic	-12.6225
▁avatar	-12.6227
▁western	-12.6229
▁annoying	-12.6231
tually	-12.6234
▁screaming	-12.6235
▁formation	-12.6235
▁ngâm	-12.6238
▁cheer	-12.6239
▁thermal	-12.624
▁grad	-12.624
▁Hot	-12.6241
▁NI	-12.6243
CA	-12.6248
▁CH	-12.6249
▁visitor	-12.6249
▁83	-12.6253
▁401	-12.626
▁Dar	-12.6261
▁Luk	-12.6268
itz	-12.6269
enter	-12.6274
▁nham	-12.6277
▁Edd	-12.6278
dad	-12.6281
mpl	-12.6286
▁consent	-12.629
▁Stay	-12.6294
eline	-12.6298
▁scal	-12.6299
▁IP	-12.6301
▁heroic	-12.6301
▁tý	-12.6309
hamed	-12.6309
limate	-12.6315
▁receiver	-12.6316
▁disc	-12.6317
▁heel	-12.6322
▁Patric	-12.6331
▁Gilli	-12.6335
60	-12.6336
28	-12.6344
▁Kam	-12.6344
▁Berg	-12.6347
▁unpredictabl	-12.6348
▁Lauren	-12.6352
▁đú	-12.6357
▁fr	-12.6358
▁symbolic	-12.6358
▁minor	-12.636
▁Bờ	-12.6368
▁Emman	-12.637
▁hive	-12.6377
▁crow	-12.6383
ruct	-12.6384
▁Tai	-12.6385
ốn	-12.6391
inch	-12.6391
laughter	-12.6397
▁101	-12.6402
▁enabl	-12.6403
93	-12.6403
uous	-12.6403
pox	-12.6405
▁nhứ	-12.6409
▁gramma	-12.6411
ancer	-12.6413
▁Jose	-12.6413
▁BM	-12.6428
▁Australian	-12.6434
arrow	-12.6439
omin	-12.644
ID	-12.6446
▁AD	-12.6448
▁Gui	-12.6461
oil	-12.6465
ứ	-12.6468
▁coup	-12.6469
▁digitize	-12.647
▁dedicate	-12.6474
hicken	-12.6477
oxy	-12.6486
▁Kiể	-12.649
▁sometime	-12.649
▁Nô	-12.6491
▁Bare	-12.6499
ủa	-12.6515
▁paste	-12.6515
ote	-12.6516
rock	-12.6518
AM	-12.652
broad	-12.652
positive	-12.6521
million	-12.6521
school	-12.6521
speed	-12.6521
▁humili	-12.6522
▁resonate	-12.6523
fund	-12.6523
▁Happ	-12.6531
▁evaluate	-12.6537
TO	-12.6538
story	-12.6539
▁laborator	-12.6539
fill	-12.6551
gic	-12.6559
▁diver	-12.6559
▁luồn	-12.657
atic	-12.6576
▁Old	-12.6577
▁embarrass	-12.6578
▁guards	-12.6579
▁Work	-12.6579
ẹo	-12.6581
▁Pan	-12.6581
▁RS	-12.6584
eval	-12.6591
▁zoo	-12.6596
ibu	-12.6608
▁prospect	-12.6615
▁numb	-12.662
▁carb	-12.662
iêm	-12.6622
▁chồn	-12.6624
▁Tibet	-12.6625
ectar	-12.6626
▁reconcili	-12.6626
▁veloci	-12.6626
#	-12.6626
▁DIY	-12.6626
▁Madagas	-12.6626
▁anniversar	-12.6626
▁clitoris	-12.6626
▁collage	-12.6626
▁convincing	-12.6626
▁facult	-12.6626
▁ghost	-12.6626
▁laundr	-12.6626
▁peculiar	-12.6626
▁petition	-12.6626
▁slogan	-12.6626
▁surgical	-12.6626
▁unleash	-12.6626
▁algae	-12.6626
▁flesh	-12.6626
▁pathogen	-12.6626
▁praise	-12.6626
▁hollow	-12.6626
▁shuttle	-12.6626
▁squid	-12.6626
▁webcam	-12.6626
▁bonobo	-12.6626
▁flexibilit	-12.6626
▁greet	-12.6626
violet	-12.6626
▁nuance	-12.6626
▁hump	-12.6626
▁pension	-12.6626
▁guest	-12.6626
▁checklist	-12.6626
▁emphasize	-12.6626
▁propagand	-12.6626
▁suitcase	-12.6626
▁scholarship	-12.6626
▁1982	-12.6626
▁foster	-12.6626
▁coincidence	-12.6626
▁shallow	-12.6626
▁soundscape	-12.6626
▁crap	-12.6626
▁Recent	-12.6626
▁headquarter	-12.6626
▁operator	-12.6627
▁Self	-12.6627
▁separation	-12.6627
▁devise	-12.6627
▁LOL	-12.6627
▁cabinet	-12.6627
▁giun	-12.6627
▁temptation	-12.6627
▁riot	-12.6627
▁migration	-12.6627
▁fame	-12.6627
bio	-12.6627
▁calci	-12.6628
▁exit	-12.6628
▁reproduction	-12.6628
heim	-12.6628
▁Trust	-12.6629
▁Khí	-12.6629
▁volcano	-12.6629
▁cattle	-12.6629
▁Kendal	-12.6629
▁1920	-12.6629
key	-12.6629
Chryst	-12.6629
▁Limb	-12.6629
▁Cloni	-12.663
▁empowerment	-12.663
▁scarc	-12.663
▁playground	-12.6631
▁generator	-12.6632
▁sadness	-12.6632
▁thản	-12.6632
▁Espe	-12.6632
▁Fear	-12.6633
▁Station	-12.6633
muddi	-12.6635
▁Night	-12.6637
▁memorial	-12.6638
▁worldview	-12.6638
▁bú	-12.6638
▁asthma	-12.6639
▁armor	-12.664
▁RI	-12.6645
▁millennia	-12.6645
▁Luck	-12.6646
▁Midwest	-12.6647
▁troll	-12.6648
▁dri	-12.665
www	-12.6651
▁nasty	-12.6652
▁humble	-12.6653
▁Harve	-12.6655
▁differentiate	-12.6656
▁thoa	-12.6657
elli	-12.6658
▁assistant	-12.6659
▁miser	-12.6659
▁sixth	-12.6661
▁viền	-12.6662
aux	-12.6663
▁wilder	-12.6665
linger	-12.667
▁indirect	-12.6672
▁prayer	-12.6674
▁Hua	-12.6678
▁Find	-12.6678
▁rendering	-12.668
nmark	-12.6682
win	-12.6686
itan	-12.6687
▁mount	-12.6696
sanitary	-12.6697
▁gangs	-12.6702
▁Force	-12.6708
▁MW	-12.6711
▁feeds	-12.6712
▁coma	-12.6712
jac	-12.6721
pur	-12.6721
dale	-12.6725
ddle	-12.6726
▁horses	-12.6729
▁centi	-12.6737
etting	-12.6737
▁globaliz	-12.6737
ushi	-12.6744
▁tuna	-12.675
▁atomic	-12.6762
,200	-12.6767
otic	-12.677
dez	-12.6771
▁Rod	-12.6772
▁Isa	-12.6774
▁Biể	-12.6775
▁pos	-12.6776
▁Perr	-12.6789
entric	-12.6789
▁gentle	-12.6791
▁750	-12.6806
iful	-12.6809
rose	-12.6816
▁Key	-12.6817
uction	-12.6821
▁confuse	-12.6822
▁jo	-12.6829
▁ambiguit	-12.6831
▁Robin	-12.6835
▁sole	-12.6838
elle	-12.6838
▁Dàn	-12.6841
tenth	-12.6844
▁dye	-12.6845
▁193	-12.6852
umor	-12.6864
▁Bé	-12.6864
▁nhôm	-12.6866
▁penn	-12.6867
itting	-12.6877
saving	-12.6888
ảm	-12.6892
hậm	-12.6898
34	-12.69
ulli	-12.6906
rtz	-12.6918
▁Lesters	-12.6929
▁fighter	-12.6953
nô	-12.6958
leg	-12.6968
▁Đôn	-12.6971
▁Den	-12.6972
venue	-12.6973
produc	-12.6974
Prince	-12.6974
▁365	-12.6977
▁matche	-12.6979
flow	-12.6981
wash	-12.6985
▁tweets	-12.6988
.9	-12.6989
ollider	-12.6991
aper	-12.6993
▁59	-12.6994
▁liberat	-12.7002
ạm	-12.7004
▁ub	-12.701
Tun	-12.7011
▁bounce	-12.7017
PA	-12.7018
cow	-12.7019
▁Polic	-12.7019
▁App	-12.7028
▁optic	-12.7031
▁analytic	-12.7032
▁scream	-12.7033
▁Mik	-12.7046
▁skip	-12.7051
▁Bett	-12.7057
together	-12.7057
▁timing	-12.7058
▁underestimate	-12.706
hhh	-12.7062
▁epidemics	-12.7063
▁1500	-12.7069
▁Davi	-12.707
▁logg	-12.7071
▁swam	-12.7072
▁Curi	-12.7079
mmunity	-12.708
NICE	-12.708
plasma	-12.708
▁Doctor	-12.708
▁Exxon	-12.708
▁Picture	-12.708
▁Senegal	-12.708
▁Sinclair	-12.708
▁Splashy	-12.708
▁articulate	-12.708
▁charcoal	-12.708
▁corridor	-12.708
▁elaborate	-12.708
▁intricate	-12.708
▁kindergart	-12.708
▁meerkat	-12.708
▁ngặt	-12.708
▁nickname	-12.708
▁scroll	-12.708
▁soccer	-12.708
▁steak	-12.708
▁steep	-12.708
▁vegetarian	-12.708
▁worship	-12.708
▁diameter	-12.708
▁Darfur	-12.708
▁brainstorm	-12.708
▁giềng	-12.708
▁Adria	-12.708
▁deception	-12.708
▁faint	-12.708
▁energetic	-12.708
▁Morgan	-12.708
▁biomaterial	-12.708
▁Speak	-12.708
▁violate	-12.7081
▁acute	-12.7081
▁Economic	-12.7081
▁vagina	-12.7081
▁1983	-12.7081
▁multiverse	-12.7081
▁Jarret	-12.7081
▁Text	-12.7081
▁portray	-12.7081
▁superior	-12.7081
▁modifie	-12.7081
▁Kentuck	-12.7081
▁0.1	-12.7081
▁hammer	-12.7081
▁lyric	-12.7081
▁Nicola	-12.7081
▁macro	-12.7081
▁Trừ	-12.7081
▁mixture	-12.7082
▁marketplace	-12.7082
▁1949	-12.7082
▁tilt	-12.7082
▁Hyder	-12.7083
balone	-12.7083
▁barrel	-12.7083
▁flock	-12.7083
▁1,3	-12.7083
▁Ohio	-12.7083
▁injection	-12.7083
▁cease	-12.7084
▁Justice	-12.7084
▁conviction	-12.7084
▁Money	-12.7084
▁possession	-12.7084
▁comprehensive	-12.7085
▁medal	-12.7086
▁Nei	-12.7086
▁cosmolog	-12.7087
ISA	-12.7088
▁pore	-12.7088
▁Knight	-12.7088
otherap	-12.7089
▁Farmer	-12.709
▁unlock	-12.7092
▁mash	-12.7093
▁Fai	-12.7095
▁nguyệt	-12.7097
ổi	-12.7098
▁End	-12.7098
▁qualifie	-12.7098
▁Teacher	-12.7101
▁rán	-12.7101
▁Ola	-12.7101
▁governor	-12.7102
▁basement	-12.7103
olves	-12.7105
▁upward	-12.7105
▁Clevela	-12.7105
▁strengthen	-12.7108
▁presum	-12.7111
▁cưng	-12.7114
▁Mob	-12.7114
▁provoke	-12.7116
▁noble	-12.7117
▁confusion	-12.7119
▁cultivate	-12.7119
▁74	-12.7124
▁shade	-12.7124
▁behold	-12.7128
▁rebel	-12.7128
▁methodolog	-12.713
RN	-12.7131
udge	-12.7131
▁tightly	-12.7135
▁convenient	-12.7138
▁Hud	-12.7139
▁reactor	-12.714
▁Hama	-12.7141
▁gồ	-12.7141
▁prioritize	-12.7141
▁commander	-12.7142
uten	-12.7144
▁Merc	-12.7147
▁machiner	-12.7152
NES	-12.7153
ạp	-12.7161
igital	-12.717
▁suôn	-12.7179
▁Giê	-12.7179
▁auto	-12.7179
liberation	-12.7179
▁Nổ	-12.7183
▁eighth	-12.7187
▁Nav	-12.7192
ingenu	-12.7197
cover	-12.7197
▁nhô	-12.7198
▁TB	-12.7199
homa	-12.7201
18	-12.7201
▁Baby	-12.7206
utter	-12.7209
▁khoé	-12.7212
▁Bag	-12.7213
▁digg	-12.7228
▁Rebe	-12.7228
▁bacteri	-12.7229
▁Cat	-12.7232
▁planner	-12.7232
▁Paula	-12.7235
▁HC	-12.7238
hẹn	-12.7247
▁chè	-12.7265
▁cừ	-12.7267
▁ju	-12.7269
▁heli	-12.727
ggy	-12.7276
▁bầm	-12.7288
▁Shin	-12.7295
sustainabl	-12.7301
▁Eat	-12.7305
▁Goer	-12.7307
▁thò	-12.7308
▁sủ	-12.7319
lage	-12.733
▁vãn	-12.7336
rque	-12.7339
▁fur	-12.736
▁banne	-12.7382
ilton	-12.7389
▁ignor	-12.7393
nberg	-12.7393
ean	-12.7398
dah	-12.7408
▁báng	-12.7415
logy	-12.7415
▁prot	-12.7421
36	-12.7424
roadway	-12.7425
tune	-12.7428
oline	-12.7431
▁invad	-12.7444
nutrition	-12.745
rani	-12.745
credit	-12.7451
resistan	-12.7451
great	-12.7451
một	-12.7451
phone	-12.7465
ĩa	-12.7468
scope	-12.7478
▁acknowledg	-12.7483
▁Sang	-12.7483
cid	-12.7485
▁ape	-12.7497
▁reo	-12.7505
locks	-12.7511
▁industrialize	-12.7517
▁squeeze	-12.7518
eague	-12.752
PO	-12.7522
▁fertil	-12.7523
maker	-12.7525
▁hươ	-12.7528
osphere	-12.7529
▁assure	-12.7529
▁psycho	-12.7536
angle	-12.7536
▁Lyn	-12.7538
▁statistic	-12.7547
echanical	-12.7551
▁bass	-12.7551
▁pollut	-12.7553
▁vibrati	-12.7554
▁counsel	-12.7554
▁straw	-12.7554
nergy	-12.7555
▁suburb	-12.7555
iamond	-12.7556
▁enthusias	-12.7556
▁sympath	-12.7556
▁resurrect	-12.7557
▁Botswan	-12.7557
▁Duoling	-12.7557
▁Enceladus	-12.7557
▁Field	-12.7557
▁Missouri	-12.7557
▁Mozambique	-12.7557
▁Nikola	-12.7557
▁Service	-12.7557
▁Sisyph	-12.7557
▁Suppose	-12.7557
▁anecdote	-12.7557
▁communal	-12.7557
▁diarrhea	-12.7557
▁fMRI	-12.7557
▁gluten	-12.7557
▁juvenile	-12.7557
▁peripher	-12.7557
▁pixel	-12.7557
▁prince	-12.7557
▁replie	-12.7557
▁retreat	-12.7557
▁rhetoric	-12.7557
▁Fund	-12.7557
▁drain	-12.7557
▁hypothetical	-12.7557
▁warehouse	-12.7557
▁feather	-12.7557
▁stagger	-12.7557
▁Ferris	-12.7557
▁Spider	-12.7557
▁indigen	-12.7557
▁sulfur	-12.7557
▁ballot	-12.7557
▁vaccinate	-12.7557
▁Havard	-12.7557
▁cinema	-12.7557
▁urgent	-12.7557
human	-12.7557
▁cement	-12.7557
▁Large	-12.7557
▁blanket	-12.7557
▁preced	-12.7557
▁Nino	-12.7557
▁chaotic	-12.7558
oulder	-12.7558
▁CDC	-12.7558
▁Kind	-12.7558
▁cellphone	-12.7558
▁Sufi	-12.7559
▁Missis	-12.7559
▁sẹo	-12.7559
▁accomplishment	-12.7559
▁epic	-12.7559
zơ	-12.756
▁2014	-12.756
▁Pants	-12.756
▁regulator	-12.756
▁1,6	-12.756
▁rust	-12.7561
▁Brazilian	-12.7562
▁Financial	-12.7562
▁wallet	-12.7563
shmi	-12.7564
▁Wild	-12.7564
▁timber	-12.7564
▁2.3	-12.7564
▁Vila	-12.7566
▁spor	-12.7566
▁Award	-12.7568
▁duty	-12.7569
▁Huh	-12.757
▁west	-12.7573
▁progression	-12.7574
▁conception	-12.7576
▁Kurd	-12.7576
▁nhọc	-12.7577
▁correlate	-12.7578
▁duration	-12.758
▁inhabit	-12.7582
▁eternal	-12.7583
▁experimentation	-12.7583
▁composer	-12.7583
▁cubic	-12.7583
▁Android	-12.7584
kut	-12.7585
▁offshor	-12.7585
▁Rum	-12.7586
▁publication	-12.7588
uke	-12.759
▁Earl	-12.7591
▁province	-12.7593
ache	-12.76
▁mite	-12.76
▁induce	-12.7602
ssential	-12.7602
▁Lock	-12.7606
▁Farm	-12.7606
erk	-12.7608
▁collector	-12.7611
▁Goldi	-12.7612
▁amen	-12.7617
CR	-12.7618
▁Gho	-12.7623
▁taboo	-12.7629
▁stimulat	-12.7633
▁transferr	-12.7639
elling	-12.7642
▁pat	-12.7642
atus	-12.7643
▁rubb	-12.7643
▁unst	-12.7646
dder	-12.7647
PL	-12.7649
▁incremental	-12.765
▁Hav	-12.7657
▁Nine	-12.7659
imi	-12.7664
▁Bond	-12.7675
▁marks	-12.7677
lash	-12.7678
▁incorporate	-12.7679
zar	-12.7689
▁fleet	-12.769
hun	-12.7693
▁Fast	-12.7712
▁nhai	-12.7713
▁Arms	-12.7717
▁journalis	-12.7718
▁Sandy	-12.7731
▁Ran	-12.7745
▁ya	-12.7751
▁Mir	-12.7756
tification	-12.7762
▁popp	-12.7765
▁Film	-12.7766
▁Rang	-12.7767
▁deer	-12.7768
▁Sim	-12.7778
▁bombing	-12.7783
▁equi	-12.7784
▁microscopi	-12.7785
▁persuade	-12.7786
▁Mong	-12.7792
▁Preg	-12.7821
▁đắp	-12.7823
fat	-12.7826
huyết	-12.7827
blew	-12.7829
bble	-12.783
▁resemble	-12.7835
hell	-12.7837
▁verbal	-12.7838
quẳng	-12.7838
▁frontal	-12.7842
▁sling	-12.7844
▁24-	-12.7854
read	-12.7872
endo	-12.7876
TC	-12.7877
etz	-12.7884
▁der	-12.7887
▁Bren	-12.7899
ania	-12.7901
▁op	-12.7907
▁woode	-12.7907
▁Bear	-12.7909
▁Pin	-12.7912
Sh	-12.7913
ò	-12.7915
▁Bio	-12.7917
▁electromagneti	-12.7918
33	-12.7919
▁Tham	-12.7929
ón	-12.7932
▁Elv	-12.7936
reach	-12.7945
complete	-12.7951
▁lả	-12.7952
Lee	-12.7952
tô	-12.7953
▁doodl	-12.7953
▁obscure	-12.7954
▁explod	-12.7956
▁Univers	-12.7959
▁Bin	-12.7963
talk	-12.7964
iev	-12.7966
▁Sen	-12.7976
sippi	-12.798
antha	-12.7982
▁polariz	-12.7985
link	-12.7986
ão	-12.7988
▁spott	-12.7991
▁Fer	-12.7992
▁Scot	-12.7996
hall	-12.8004
▁whiske	-12.8008
▁annoy	-12.8009
▁Jamaica	-12.801
▁retail	-12.8013
nuit	-12.8013
▁Prim	-12.8017
duk	-12.8023
RC	-12.8026
▁63	-12.8027
▁listener	-12.803
lever	-12.8037
75	-12.8044
▁nurtur	-12.8046
etween	-12.805
specific	-12.805
▁sạc	-12.8054
▁gôn	-12.8056
▁emphasi	-12.8056
▁Snow	-12.8057
▁Electro	-12.8057
▁bloop	-12.8057
prejudice	-12.8057
▁Algeria	-12.8057
▁Balkan	-12.8057
▁Beatle	-12.8057
▁Budrus	-12.8057
▁Buffet	-12.8057
▁Cassini	-12.8057
▁Chechnya	-12.8057
▁Feynman	-12.8057
▁Hundred	-12.8057
▁Photograph	-12.8057
▁Simpson	-12.8057
▁Trinida	-12.8057
▁adjacen	-12.8057
▁benign	-12.8057
▁conspirac	-12.8057
▁diffusion	-12.8057
▁frugal	-12.8057
▁identification	-12.8057
▁interrogat	-12.8057
▁millisecond	-12.8057
▁modify	-12.8057
▁mutilat	-12.8057
▁paragraph	-12.8057
▁prescription	-12.8057
▁reconcile	-12.8057
▁reservation	-12.8057
▁scoop	-12.8057
▁triumph	-12.8057
▁unimaginabl	-12.8057
▁Eames	-12.8057
▁lemon	-12.8057
▁Denisovan	-12.8057
▁NSA	-12.8057
▁Command	-12.8057
esteem	-12.8057
▁Forget	-12.8057
▁immerse	-12.8057
▁minimize	-12.8057
arithm	-12.8057
▁provocative	-12.8057
▁distill	-12.8057
▁virtuo	-12.8057
▁spatial	-12.8057
▁motorcycle	-12.8057
▁Vivian	-12.8057
▁spoil	-12.8057
▁Control	-12.8057
agme	-12.8057
▁Knee	-12.8057
▁utilit	-12.8057
▁Secretary	-12.8057
▁Gifford	-12.8057
▁Nguy	-12.8057
▁competitor	-12.8057
▁biosphere	-12.8057
▁discard	-12.8057
▁assess	-12.8057
▁echo	-12.8057
▁superstar	-12.8057
▁Movement	-12.8057
▁criticism	-12.8057
▁textile	-12.8057
▁headphone	-12.8058
▁draft	-12.8058
▁Desp	-12.8058
▁exile	-12.8058
▁seawater	-12.8058
▁Casa	-12.8058
▁Birds	-12.8058
▁evaluation	-12.8058
▁insult	-12.8058
▁grim	-12.8059
consistenc	-12.8059
▁manipulation	-12.8059
▁cabin	-12.8059
▁crab	-12.8059
▁Magic	-12.806
▁celebration	-12.806
▁pollutant	-12.806
▁attachment	-12.8061
▁Meet	-12.8061
▁warfar	-12.8061
▁sci	-12.8061
▁3.5	-12.8061
▁knot	-12.8062
▁liễu	-12.8062
▁distraction	-12.8063
▁olive	-12.8063
▁Cross	-12.8063
▁Deb	-12.8063
▁Rica	-12.8063
▁Lago	-12.8064
▁thumbs	-12.8064
▁nhẽ	-12.8067
▁trunk	-12.8068
▁Bagh	-12.8069
▁upgrade	-12.807
▁ín	-12.807
▁temporal	-12.8071
▁Roll	-12.8071
▁chef	-12.8072
▁Word	-12.8073
▁toaster	-12.8073
▁acquir	-12.8074
▁consideration	-12.8074
▁Sina	-12.8075
Murdo	-12.8075
▁technologist	-12.8076
▁idiot	-12.8078
▁loã	-12.8079
▁1.7	-12.8083
▁liter	-12.8085
▁outward	-12.8085
vada	-12.8087
▁hypothes	-12.8087
winn	-12.8088
▁forge	-12.8094
▁Slow	-12.81
▁zip	-12.8101
▁Live	-12.8109
uza	-12.8112
thic	-12.8115
friendl	-12.8116
▁Lea	-12.8117
▁Jaw	-12.8119
▁semina	-12.8119
▁Designer	-12.8123
▁Sub	-12.8125
wler	-12.8125
▁Hal	-12.8126
▁traumatic	-12.8127
fee	-12.8127
▁scu	-12.8129
▁brake	-12.8133
▁dè	-12.8133
▁Victorian	-12.8137
gall	-12.8139
▁reasonabl	-12.8139
▁vv	-12.8146
vian	-12.815
raw	-12.8151
▁ròng	-12.8153
▁Sala	-12.8154
▁planting	-12.816
▁pun	-12.816
▁backup	-12.8162
▁Honor	-12.8164
inner	-12.817
▁Kant	-12.8172
▁thủng	-12.8172
▁follower	-12.8183
▁laz	-12.8186
▁remark	-12.8187
▁sock	-12.8187
DT	-12.8188
pam	-12.8188
▁Carro	-12.8188
▁khờ	-12.8206
▁criticize	-12.8209
SS	-12.821
▁Ger	-12.8211
▁Loa	-12.8211
▁manufacture	-12.8212
estone	-12.8214
▁soda	-12.8221
▁survivors	-12.8229
▁revolutionize	-12.8231
▁capitalist	-12.8232
▁Beth	-12.8232
▁Cod	-12.8232
▁4000	-12.8236
▁biologically	-12.8237
golia	-12.8238
▁Pur	-12.8245
amara	-12.8247
▁Kath	-12.8247
600	-12.8247
▁nai	-12.8282
wo	-12.8284
▁merge	-12.8284
▁ED	-12.8285
▁Though	-12.8289
ode	-12.8297
▁Syrian	-12.83
▁balanc	-12.8309
▁Sony	-12.831
pling	-12.8312
amble	-12.8315
▁Jeann	-12.8317
▁recreate	-12.8323
▁Gian	-12.8324
▁sensibl	-12.8328
▁bịch	-12.8329
▁wit	-12.8339
▁geographical	-12.8339
generation	-12.8343
▁digest	-12.8352
▁UC	-12.8353
otion	-12.8359
▁reflectiv	-12.8362
ượ	-12.8369
▁gamer	-12.8374
mega	-12.8378
heart	-12.8385
▁lap	-12.8386
eck	-12.8386
roll	-12.8391
pack	-12.8415
waves	-12.8417
▁nit	-12.8417
▁starch	-12.8419
▁auditor	-12.8422
▁secondar	-12.8424
▁Agen	-12.8425
▁insur	-12.8427
chel	-12.8433
haired	-12.8442
▁thê	-12.8445
▁mytholog	-12.8452
▁Pakistani	-12.8456
▁đê	-12.8462
▁lip	-12.8468
culture	-12.8469
xở	-12.8471
▁gò	-12.8475
ipping	-12.8477
organic	-12.8477
piece	-12.8478
bling	-12.8478
green	-12.8478
brand	-12.848
▁collaps	-12.848
bel	-12.8481
▁miên	-12.8482
walk	-12.8483
roth	-12.8486
Tôi	-12.8486
kel	-12.8487
xí	-12.8491
cap	-12.8498
path	-12.85
▁Fat	-12.8503
SDA	-12.8506
▁Quản	-12.851
▁emitt	-12.8512
onference	-12.8515
type	-12.8521
▁morally	-12.8523
arina	-12.853
▁astronom	-12.8534
▁disturb	-12.8535
too	-12.8541
▁commute	-12.8549
▁humbl	-12.855
▁Swe	-12.855
cles	-12.8551
▁calcul	-12.8552
▁cycl	-12.8558
▁Burg	-12.8563
▁mị	-12.8564
▁Liz	-12.8568
clusion	-12.857
disciplinar	-12.857
▁intellect	-12.857
▁Use	-12.8571
▁Trac	-12.8577
ampaign	-12.8579
▁refrigerat	-12.858
▁prosper	-12.8581
scribe	-12.8582
▁manifest	-12.8582
▁thạc	-12.8582
ltimate	-12.8583
▁Mount	-12.8583
▁Schwarz	-12.8583
▁Language	-12.8583
▁Laptop	-12.8583
▁Record	-12.8583
▁Serious	-12.8583
▁WorldWide	-12.8583
▁absurd	-12.8583
▁accumulati	-12.8583
▁acquisition	-12.8583
▁adrenalin	-12.8583
▁catastrophe	-12.8583
▁certificate	-12.8583
▁convenience	-12.8583
▁curator	-12.8583
▁deplet	-12.8583
▁institute	-12.8583
▁margins	-12.8583
▁mortgage	-12.8583
▁occupie	-12.8583
▁rẩy	-12.8583
▁skyscraper	-12.8583
▁spiral	-12.8583
▁tribute	-12.8583
▁turtle	-12.8583
▁voluntar	-12.8583
▁fuzz	-12.8583
▁perfume	-12.8583
▁pivot	-12.8583
▁slate	-12.8583
▁steward	-12.8583
▁Bowl	-12.8583
▁Common	-12.8583
▁mafia	-12.8583
▁pneumo	-12.8583
▁spouse	-12.8583
▁rigorous	-12.8583
▁sync	-12.8583
▁vibran	-12.8583
fensive	-12.8583
▁escalat	-12.8583
▁interfere	-12.8583
▁Viagra	-12.8583
▁jacket	-12.8583
▁matern	-12.8583
▁statue	-12.8583
▁Isabel	-12.8583
▁owl	-12.8583
▁Fifty	-12.8583
▁tinker	-12.8583
▁alpha	-12.8583
▁Biến	-12.8583
▁strat	-12.8583
▁cochlea	-12.8583
▁nonverbal	-12.8583
▁hurdle	-12.8583
▁Hungarian	-12.8583
▁Nhớ	-12.8583
▁deceive	-12.8584
▁verge	-12.8584
▁missile	-12.8584
▁Portug	-12.8584
▁orientation	-12.8584
▁Frederic	-12.8584
▁flick	-12.8584
▁synapse	-12.8584
▁urbanization	-12.8584
▁Pearl	-12.8585
▁sociologist	-12.8585
▁Sacr	-12.8585
▁Marx	-12.8585
▁microbi	-12.8585
▁catalog	-12.8585
▁quark	-12.8585
▁Change	-12.8586
▁consultant	-12.8586
▁shave	-12.8586
▁vanish	-12.8586
▁Born	-12.8586
▁tứ	-12.8586
▁innate	-12.8586
▁crater	-12.8586
▁Libra	-12.8586
bama	-12.8587
▁hug	-12.8587
▁beast	-12.8587
▁bulk	-12.8587
▁violation	-12.8588
▁Humanity	-12.8589
▁council	-12.8589
▁Grey	-12.8589
▁vow	-12.859
▁ideological	-12.859
▁midst	-12.8591
▁Brun	-12.8591
▁Town	-12.8591
▁cỗi	-12.8594
▁Million	-12.8595
▁abstraction	-12.8595
▁compris	-12.8595
▁Blackberr	-12.8595
▁titan	-12.8596
▁Kite	-12.8596
▁vein	-12.8597
27	-12.8597
▁Whole	-12.8597
▁paradi	-12.8597
▁constitute	-12.8598
▁1.8	-12.8598
▁halve	-12.8599
▁Stalin	-12.86
▁Artist	-12.86
▁slap	-12.8601
▁damag	-12.8601
▁collar	-12.8604
▁depriv	-12.8604
▁teache	-12.8604
▁DH	-12.8604
▁potent	-12.8605
▁mili	-12.8605
psychotic	-12.8607
▁Pope	-12.8608
ợc	-12.8614
lib	-12.8617
▁Animal	-12.8618
▁Costa	-12.8621
hủng	-12.8623
▁mock	-12.8623
▁migrat	-12.8625
▁startling	-12.8625
▁augmented	-12.8627
▁mysteri	-12.8628
▁Jen	-12.8629
beta	-12.8631
▁estimat	-12.8633
owa	-12.8634
▁Cười	-12.8637
urgenc	-12.8638
etti	-12.8639
▁canxi	-12.864
▁Barbi	-12.8641
ngue	-12.8641
▁Working	-12.8641
▁forger	-12.8642
▁71	-12.8643
▁quiz	-12.8644
▁Call	-12.8645
cultural	-12.8647
▁khuya	-12.8649
verly	-12.8649
▁tender	-12.865
▁Leh	-12.8652
enos	-12.8653
▁Thanh	-12.8654
entrepreneurship	-12.8659
▁employer	-12.866
▁Sue	-12.8661
list	-12.8661
bor	-12.8664
▁Burk	-12.8665
▁cosmo	-12.8669
▁Sting	-12.8671
▁forum	-12.8671
▁confer	-12.8675
▁lẽo	-12.8679
▁sketche	-12.868
ieber	-12.8686
▁optimize	-12.8687
section	-12.869
▁Ow	-12.8692
▁orient	-12.8693
▁vạ	-12.8694
ello	-12.8695
▁Runn	-12.8696
▁62	-12.87
▁Iraqi	-12.8704
▁Bring	-12.8714
tted	-12.8714
▁18-	-12.8717
oja	-12.8734
▁NA	-12.8735
▁tem	-12.8735
▁Fr	-12.8744
▁Blai	-12.8746
62	-12.8754
escent	-12.8757
▁mistaken	-12.8769
▁Test	-12.8776
NH	-12.8782
▁racis	-12.8787
▁Nhu	-12.8788
▁fu	-12.8797
▁Burm	-12.8797
▁Aid	-12.8801
▁Send	-12.8803
▁Hany	-12.8809
hạy	-12.881
rocco	-12.8811
▁mĩ	-12.8824
▁2,5	-12.8827
▁culturally	-12.8836
ót	-12.8839
▁Gol	-12.8845
▁Kara	-12.8848
▁Kell	-12.885
▁Lã	-12.8855
▁appl	-12.8858
▁geographic	-12.8864
▁commentar	-12.8867
cell	-12.8867
tec	-12.8872
wall	-12.8874
gai	-12.8876
▁ambigu	-12.8881
▁transformati	-12.8885
▁promot	-12.89
▁Ol	-12.8911
▁developmental	-12.8912
▁folk	-12.8917
▁pea	-12.8918
rise	-12.892
▁Penn	-12.893
▁Petr	-12.8931
▁soar	-12.8933
▁6000	-12.8939
▁Hero	-12.8942
ken	-12.8944
▁yard	-12.8956
finishe	-12.8969
door	-12.8971
direct	-12.8975
▁graduat	-12.8976
▁plac	-12.8982
axis	-12.8983
engineer	-12.8986
bard	-12.8994
▁fisc	-12.9
cast	-12.9002
▁Por	-12.9003
▁gở	-12.9012
▁Jur	-12.9013
front	-12.9027
▁170	-12.9028
adequate	-12.903
fashion	-12.9033
communication	-12.9033
sexual	-12.9033
government	-12.9033
structure	-12.9033
securit	-12.9034
bốn	-12.9034
mouth	-12.9034
national	-12.9035
▁JE	-12.9036
turn	-12.9038
pas	-12.9042
▁Tah	-12.9042
▁Cut	-12.9044
SM	-12.9047
worm	-12.9049
▁Walt	-12.905
▁Nan	-12.9053
ogue	-12.9071
▁hun	-12.9084
divid	-12.9086
▁Luri	-12.9086
▁sneak	-12.9088
▁augment	-12.9092
▁sonic	-12.9092
▁Brea	-12.9092
▁electro	-12.9092
▁Pla	-12.9095
▁Kob	-12.9101
▁Ske	-12.9104
▁Veg	-12.9106
▁undergo	-12.9107
▁Tuc	-12.9113
▁Teach	-12.9116
aval	-12.9117
▁66	-12.9125
plin	-12.9125
▁SI	-12.9128
▁Lợ	-12.9128
▁thớ	-12.9129
▁Roa	-12.913
▁grace	-12.9131
loa	-12.9131
TA	-12.9132
caust	-12.9134
▁rode	-12.9135
▁indicati	-12.9135
▁decorat	-12.9135
▁nặn	-12.9136
▁communi	-12.9136
nburg	-12.9137
▁Victor	-12.9138
anthrop	-12.9138
▁Shack	-12.9138
▁reckless	-12.9138
junction	-12.9138
▁Bitcoin	-12.9138
▁Club	-12.9138
▁Derart	-12.9138
▁Elliot	-12.9138
▁Group	-12.9138
▁Hoffman	-12.9138
▁Laborator	-12.9138
▁MOOC	-12.9138
▁Myhrvold	-12.9138
▁Sophia	-12.9138
▁Torosaurus	-12.9138
▁Wisconsin	-12.9138
▁affair	-12.9138
▁attorney	-12.9138
▁carcinogen	-12.9138
▁cricket	-12.9138
▁cumulative	-12.9138
▁fingertip	-12.9138
▁fluorescen	-12.9138
▁glory	-12.9138
▁grassroots	-12.9138
▁gravitational	-12.9138
▁inclusive	-12.9138
▁meadow	-12.9138
▁mutant	-12.9138
▁ozone	-12.9138
▁savanna	-12.9138
▁semester	-12.9138
▁technician	-12.9138
▁turbine	-12.9138
▁unequal	-12.9138
▁unnecessar	-12.9138
▁vector	-12.9138
▁widow	-12.9138
▁Gross	-12.9138
▁Randolph	-12.9138
▁essay	-12.9138
▁pepper	-12.9138
▁reciproc	-12.9138
▁resort	-12.9138
▁scrambl	-12.9138
▁Differen	-12.9138
▁boreal	-12.9138
▁forecast	-12.9138
▁rival	-12.9138
▁scatter	-12.9138
▁Question	-12.9138
▁bruise	-12.9138
▁dictate	-12.9138
▁initiate	-12.9138
▁Skid	-12.9138
▁lexicograph	-12.9138
▁biograph	-12.9138
▁illitera	-12.9138
▁trọt	-12.9138
▁McGoni	-12.9138
▁roommate	-12.9138
▁transaction	-12.9139
▁vegetati	-12.9139
▁Maslow	-12.9139
▁curtain	-12.9139
▁Ridge	-12.9139
▁comedian	-12.9139
tigr	-12.9139
▁feasib	-12.9139
asia	-12.9139
▁peacekeep	-12.9139
▁rediscover	-12.9139
Houston	-12.9139
▁Abd	-12.9139
▁larva	-12.9139
▁Krist	-12.9139
▁audaci	-12.9139
▁Airstream	-12.9139
▁obligation	-12.9139
partisan	-12.9139
▁battlefield	-12.9139
▁persistent	-12.9139
▁porn	-12.9139
▁biotech	-12.9139
▁Suzan	-12.9139
nnica	-12.9139
▁landfill	-12.9139
▁Oxy	-12.9139
▁1976	-12.9139
▁passport	-12.9139
heid	-12.9139
▁Hyper	-12.9139
eanor	-12.9139
▁747	-12.914
▁distinctive	-12.914
▁alliance	-12.914
▁manifestation	-12.914
▁Titanic	-12.914
▁admitted	-12.914
▁communist	-12.914
▁flush	-12.914
▁persever	-12.914
▁nhổ	-12.914
▁Protect	-12.914
▁cellulos	-12.9141
▁railway	-12.9141
▁Grow	-12.9141
▁divine	-12.9141
▁hallway	-12.9141
▁Duke	-12.9141
▁restoration	-12.9142
▁expressive	-12.9142
▁appar	-12.9143
zan	-12.9143
▁Rule	-12.9143
opoly	-12.9144
▁plugg	-12.9144
▁airline	-12.9144
▁anomal	-12.9144
▁attraction	-12.9145
▁Cruze	-12.9146
▁Vui	-12.9146
▁condense	-12.9147
▁Islamist	-12.9148
lester	-12.9148
▁Often	-12.9149
▁refus	-12.9149
▁Evi	-12.9149
▁navigat	-12.9151
▁Gaga	-12.9151
▁fertiliz	-12.9151
▁freeway	-12.9151
▁Cash	-12.9152
▁Tiên	-12.9153
▁planetary	-12.9153
▁rela	-12.9153
▁Chip	-12.9154
▁ador	-12.9157
▁belt	-12.9157
▁hunch	-12.9159
▁Mauri	-12.9159
upta	-12.9162
▁Khali	-12.9162
▁Matth	-12.9164
focal	-12.9165
▁sỡ	-12.9167
▁Holo	-12.9168
▁improvis	-12.9173
▁loo	-12.9173
▁ignoran	-12.9183
▁Mê	-12.9183
▁paraly	-12.9184
▁mí	-12.9185
▁thunder	-12.9186
▁mịn	-12.9188
hearted	-12.9189
▁cris	-12.9189
▁Đề	-12.919
▁evaporate	-12.919
▁timeline	-12.919
ijan	-12.9192
▁Mulli	-12.9194
erba	-12.9194
▁Jacobs	-12.9197
▁scaling	-12.9201
▁reuse	-12.9207
▁runner	-12.9209
vald	-12.9212
▁Brent	-12.9215
▁Gram	-12.922
▁Taj	-12.9221
MU	-12.9223
pod	-12.923
▁synthesize	-12.9231
▁Nint	-12.9231
▁observer	-12.9235
lê	-12.9239
▁lự	-12.9243
koko	-12.9244
ethan	-12.9244
ggle	-12.9245
▁Shirk	-12.9246
▁adequate	-12.9248
handler	-12.925
▁projector	-12.9251
▁Kaa	-12.9252
▁doodle	-12.9256
▁Cous	-12.9261
▁fis	-12.9264
mber	-12.9267
▁psyche	-12.9268
▁controller	-12.9272
▁Engel	-12.9273
▁đả	-12.9275
▁mindful	-12.9275
▁Lion	-12.9281
▁Lau	-12.9287
▁Ata	-12.9289
▁evaluat	-12.9295
▁bully	-12.9296
▁painter	-12.9301
bart	-12.9301
ieu	-12.9305
▁Khad	-12.9305
▁coil	-12.9306
▁reliev	-12.9308
▁Hazle	-12.9312
osa	-12.9315
▁Lynn	-12.9315
▁swap	-12.9316
▁Chim	-12.9322
▁polls	-12.9335
▁Ker	-12.9337
▁raft	-12.9338
▁temper	-12.9339
▁Rocke	-12.9339
omic	-12.9341
uhan	-12.9343
▁submitt	-12.9345
▁explorers	-12.935
onald	-12.9351
▁stab	-12.9357
▁defi	-12.9364
▁ze	-12.9369
▁Stra	-12.9371
▁nghẹ	-12.9375
▁hind	-12.9375
▁vet	-12.9376
position	-12.9378
Chống	-12.9399
▁examin	-12.9402
elect	-12.9403
▁heroin	-12.9406
abul	-12.9406
matic	-12.9411
kins	-12.9414
ears	-12.9415
ehr	-12.9418
▁vent	-12.9422
▁slipp	-12.9427
AO	-12.9429
home	-12.9429
fford	-12.9433
tric	-12.9436
otice	-12.945
▁Lev	-12.9452
vision	-12.9456
ripped	-12.9457
ER	-12.9457
▁causal	-12.9458
▁forbid	-12.9458
hiền	-12.9458
▁Nia	-12.9459
▁chò	-12.9463
isco	-12.9467
▁merg	-12.9468
eric	-12.9474
▁vê	-12.9482
lateral	-12.9491
▁corporation	-12.9503
vul	-12.9505
abba	-12.9507
enzi	-12.9507
▁collaborat	-12.9509
▁pickle	-12.951
TV	-12.9511
itis	-12.9512
▁carve	-12.9516
onica	-12.9527
mming	-12.9531
▁oppress	-12.9541
▁analyst	-12.9545
▁standardize	-12.9545
▁surge	-12.9558
▁plott	-12.956
họn	-12.9562
▁Safe	-12.9564
utilize	-12.9566
▁Financ	-12.9571
▁Bán	-12.9572
lair	-12.9583
gaga	-12.9584
▁Stud	-12.9587
arable	-12.9588
▁liê	-12.9589
gence	-12.9596
dina	-12.9599
▁Suga	-12.9599
▁Yan	-12.9601
▁Fabi	-12.9615
▁Axi	-12.9617
08	-12.9618
orient	-12.9618
brush	-12.9621
opening	-12.9622
carbon	-12.9622
bound	-12.9622
track	-12.9622
shine	-12.9623
ET	-12.9631
luck	-12.9634
▁fisherm	-12.9635
▁nhún	-12.9641
risk	-12.9643
▁behav	-12.9644
▁Par	-12.965
▁clone	-12.9658
▁190	-12.9662
65	-12.9664
▁UN	-12.9665
▁devastat	-12.9678
tyl	-12.9678
▁relativ	-12.9678
▁snap	-12.9681
trans	-12.9682
▁loà	-12.9689
▁Ye	-12.969
MCA	-12.9696
▁bent	-12.9696
▁whip	-12.9697
▁650	-12.9698
▁restor	-12.9705
rưở	-12.9705
▁academ	-12.9707
▁Sky	-12.972
▁physiolog	-12.9721
▁anthropolog	-12.9723
lô	-12.9725
polis	-12.9727
▁anticipati	-12.9727
▁deceptive	-12.9727
▁premature	-12.9727
pocalyp	-12.9727
▁Instagram	-12.9727
▁Kuwait	-12.9727
▁Turbo	-12.9727
▁accommodate	-12.9727
▁administrator	-12.9727
▁appliance	-12.9727
▁autobiograph	-12.9727
▁biodegrad	-12.9727
▁compliment	-12.9727
▁disadvantage	-12.9727
▁exclude	-12.9727
▁eyebrow	-12.9727
▁festival	-12.9727
▁fraud	-12.9727
▁friction	-12.9727
▁hilarious	-12.9727
▁hippocamp	-12.9727
▁incubator	-12.9727
▁marshmallow	-12.9727
▁plaque	-12.9727
▁prevail	-12.9727
▁pronounce	-12.9727
▁recipient	-12.9727
▁relevanc	-12.9727
▁respirator	-12.9727
▁sabbatical	-12.9727
▁sensitivit	-12.9727
▁specimen	-12.9727
▁terawatt	-12.9727
▁testimon	-12.9727
▁vibrate	-12.9727
▁windmill	-12.9727
▁Hebrew	-12.9727
▁audition	-12.9727
▁fungus	-12.9727
▁inexpensive	-12.9727
▁smuggl	-12.9727
▁honeybee	-12.9727
▁susceptib	-12.9727
▁wreck	-12.9727
▁Major	-12.9727
▁residu	-12.9727
▁swarm	-12.9727
▁affirm	-12.9727
▁delusion	-12.9727
▁stagna	-12.9727
▁Creative	-12.9727
▁subconscious	-12.9727
▁aspire	-12.9727
▁Tulle	-12.9727
▁bạt	-12.9727
▁gáy	-12.9727
fidel	-12.9727
▁Snowden	-12.9727
▁memorabl	-12.9727
▁subsequent	-12.9727
▁Pyth	-12.9727
▁maximize	-12.9727
▁composite	-12.9727
▁hyena	-12.9727
▁Politic	-12.9727
▁sulf	-12.9727
▁distress	-12.9727
▁priest	-12.9727
▁crude	-12.9727
▁fluctuation	-12.9727
▁atheist	-12.9727
▁logistic	-12.9727
▁reply	-12.9727
▁genomic	-12.9727
▁outrageous	-12.9727
▁queue	-12.9727
▁Ninety	-12.9727
▁1978	-12.9727
▁guideline	-12.9728
▁Bernard	-12.9728
▁Fight	-12.9728
▁font	-12.9728
▁worthwhile	-12.9728
▁McL	-12.9728
▁trustworth	-12.9728
▁slavery	-12.9728
▁Invest	-12.9728
▁promotion	-12.9728
▁breakdown	-12.9729
▁pollinator	-12.9729
▁roost	-12.9729
▁crust	-12.9729
▁dislike	-12.9729
▁bombard	-12.9729
▁spear	-12.9729
▁Honey	-12.9729
▁joyful	-12.973
▁slash	-12.973
▁Silver	-12.973
▁deployment	-12.973
▁Tijuana	-12.973
▁Poet	-12.973
▁infra	-12.973
▁dementi	-12.973
▁TNC	-12.973
▁simplify	-12.973
▁vacan	-12.973
▁quỳ	-12.973
zoning	-12.973
▁commandment	-12.973
▁Extreme	-12.9731
weil	-12.9731
essage	-12.9731
rọng	-12.9731
▁astronomical	-12.9731
▁Market	-12.9731
▁trek	-12.9732
▁sút	-12.9732
▁Titan	-12.9732
▁physiological	-12.9733
▁gaze	-12.9733
▁reconnect	-12.9733
▁Want	-12.9733
▁disruption	-12.9734
▁giũ	-12.9735
▁morph	-12.9735
enny	-12.9735
industrial	-12.9735
▁Brain	-12.9736
▁compact	-12.9737
Monkey	-12.9738
▁interg	-12.9739
ES	-12.9739
▁PT	-12.9739
▁giòn	-12.974
▁peel	-12.9741
▁shortage	-12.9741
▁Botto	-12.9742
▁Barry	-12.9744
▁Ragu	-12.9744
withstand	-12.9745
▁Sợ	-12.9746
▁Page	-12.9746
▁Break	-12.9747
crony	-12.9747
gate	-12.975
▁chew	-12.975
roid	-12.9751
▁Aria	-12.9752
▁Vik	-12.9754
▁Tree	-12.9754
▁disgusting	-12.9754
▁Mino	-12.9757
▁Robi	-12.9761
▁sponge	-12.9762
▁Side	-12.9762
▁diplomat	-12.9765
▁geneticist	-12.9766
▁TG	-12.977
spot	-12.9772
▁blurr	-12.9772
infall	-12.9774
▁Planet	-12.9776
tomy	-12.9776
▁linguistic	-12.978
▁Mus	-12.978
▁doubl	-12.9783
▁plankton	-12.9783
vicini	-12.9784
▁popped	-12.9785
▁Carolin	-12.9786
▁HS	-12.9793
▁lik	-12.9797
arta	-12.98
▁activati	-12.98
▁Gues	-12.9801
uyễn	-12.9809
confidence	-12.9813
scot	-12.9814
▁metaphorical	-12.9815
bach	-12.9816
▁Forb	-12.9816
▁Dead	-12.982
▁inquir	-12.9823
istine	-12.9824
▁Phổ	-12.9825
▁heck	-12.9826
▁hurr	-12.9826
▁outline	-12.9829
monia	-12.9833
▁builder	-12.9841
▁LA	-12.9843
loo	-12.9843
▁infuse	-12.9845
uba	-12.9846
nnie	-12.9848
▁rein	-12.9854
▁Glenn	-12.9854
▁Mayan	-12.9859
▁Dun	-12.986
ould	-12.9861
▁Cel	-12.9867
▁gào	-12.9868
▁venue	-12.9868
▁abs	-12.9872
▁Jar	-12.9874
▁giở	-12.9874
bab	-12.9876
▁Land	-12.9877
▁Haa	-12.9879
àu	-12.9887
▁Leg	-12.9896
▁influenc	-12.9901
▁Sho	-12.9902
▁Dys	-12.9912
▁Ster	-12.9917
▁Joan	-12.9918
▁carbonate	-12.9919
aptain	-12.9923
bright	-12.9933
▁foreigner	-12.9938
đi	-12.9947
▁Bon	-12.9949
▁gyr	-12.9949
imbo	-12.9953
via	-12.9968
▁Mun	-12.9968
▁serv	-12.9977
▁belonging	-12.9978
▁embody	-12.9978
▁synchroniz	-12.9979
▁Jung	-12.9982
64	-12.9983
▁PR	-12.9986
▁prototyp	-12.9987
▁cù	-12.9997
most	-12.9997
▁attacker	-12.9998
fell	-12.9999
lude	-13.0004
▁chill	-13.0008
▁clarif	-13.001
Gregor	-13.001
▁Vai	-13.0011
▁dế	-13.0013
▁considerabl	-13.0013
Card	-13.0024
zk	-13.0024
emia	-13.0039
▁wrestle	-13.0049
▁swo	-13.0051
▁nò	-13.0057
rori	-13.006
▁Gut	-13.0063
▁visionar	-13.0066
▁yế	-13.007
▁frie	-13.0081
▁Phó	-13.0085
▁nú	-13.0087
vasive	-13.0094
▁verse	-13.0097
quat	-13.01
▁ngà	-13.0105
fall	-13.0107
▁environmentally	-13.0108
dred	-13.0108
▁exceptional	-13.0115
solv	-13.0115
▁satisf	-13.0121
built	-13.0126
▁holder	-13.0132
▁Mori	-13.0132
flu	-13.0133
eez	-13.0134
▁nudge	-13.0138
rance	-13.0139
▁Flo	-13.0142
▁Tz	-13.0145
▁desir	-13.0145
dental	-13.0147
▁mau	-13.016
ickli	-13.0161
▁endur	-13.0165
pus	-13.0174
▁explorer	-13.0176
▁Lak	-13.0177
bie	-13.018
▁Sug	-13.0182
20.000	-13.0185
▁nut	-13.0187
stick	-13.0188
▁IV	-13.0189
grad	-13.0191
▁Kho	-13.0192
▁circula	-13.0193
ussel	-13.0197
▁Moi	-13.0207
▁pollinate	-13.0207
▁rotat	-13.0207
6,000	-13.0211
MM	-13.0218
▁Rah	-13.022
ckel	-13.0223
andel	-13.0224
▁lighter	-13.0226
play	-13.0228
▁weave	-13.0232
▁tể	-13.0237
ija	-13.0239
▁Trả	-13.0242
sensitive	-13.0246
wheel	-13.0246
week	-13.0247
TB	-13.025
check	-13.025
Pes	-13.0261
nonymous	-13.0263
▁Eight	-13.0266
▁reside	-13.0267
TT	-13.0273
ivers	-13.0278
HD	-13.0281
▁pursui	-13.0288
zel	-13.029
ucker	-13.0293
▁Spi	-13.0296
▁Hono	-13.0297
▁legend	-13.0299
▁Dance	-13.0301
▁Jacob	-13.0303
▁Uncle	-13.0304
▁Ree	-13.0307
▁Oc	-13.0313
▁lymph	-13.0314
▁nhì	-13.0318
▁rev	-13.0318
proving	-13.0319
98	-13.032
help	-13.0329
▁spectro	-13.0332
▁Tomb	-13.0337
▁Daw	-13.0338
ppo	-13.0341
▁lobby	-13.0345
▁prosecut	-13.0346
ườn	-13.0347
pecies	-13.0349
▁excess	-13.0351
UV	-13.0351
rosoc	-13.0351
▁amyloid	-13.0352
▁persuasi	-13.0352
▁AlloSphere	-13.0352
▁Believe	-13.0352
▁Bionicle	-13.0352
▁Budape	-13.0352
▁Excuse	-13.0352
▁Griffi	-13.0352
▁IPCC	-13.0352
▁KIPP	-13.0352
▁Kuznet	-13.0352
▁Okinawa	-13.0352
▁Traditional	-13.0352
▁WikiLeaks	-13.0352
▁Wilkins	-13.0352
▁appetite	-13.0352
▁arrogan	-13.0352
▁cafeteria	-13.0352
▁carpenter	-13.0352
▁concussion	-13.0352
▁cyborg	-13.0352
▁empirical	-13.0352
▁excerpt	-13.0352
▁extrovert	-13.0352
▁invasion	-13.0352
▁megawatt	-13.0352
▁miraculous	-13.0352
▁nanotube	-13.0352
▁necessit	-13.0352
▁neutron	-13.0352
▁opponent	-13.0352
▁pajama	-13.0352
▁registr	-13.0352
▁responsive	-13.0352
▁ridicule	-13.0352
▁rupee	-13.0352
▁sermon	-13.0352
▁transgender	-13.0352
▁treadmill	-13.0352
Thousands	-13.0352
▁ATM	-13.0352
▁Current	-13.0352
▁Krishna	-13.0352
▁Nixon	-13.0352
▁Visual	-13.0352
▁ancestr	-13.0352
▁balcon	-13.0352
▁embark	-13.0352
▁sterile	-13.0352
▁submarine	-13.0352
▁Hatz	-13.0352
▁Kirk	-13.0352
▁improbab	-13.0352
▁template	-13.0352
▁Typical	-13.0352
▁MAS	-13.0352
▁cereal	-13.0352
▁grind	-13.0352
▁sanctuar	-13.0352
▁seamless	-13.0352
▁stink	-13.0352
▁Yellowstone	-13.0352
▁exceed	-13.0352
▁penetrate	-13.0352
▁wingsuit	-13.0352
▁cherish	-13.0352
▁scandal	-13.0352
▁Igbo	-13.0352
▁sentiment	-13.0352
▁Debora	-13.0352
▁mutate	-13.0352
▁bladder	-13.0352
transcendence	-13.0352
▁Index	-13.0352
▁counterpart	-13.0352
▁oblivio	-13.0352
▁Airport	-13.0352
▁boson	-13.0352
▁wetsuit	-13.0352
▁Natal	-13.0352
▁charisma	-13.0352
▁Personal	-13.0352
▁Jorge	-13.0352
▁fingerprint	-13.0352
▁nomad	-13.0352
▁throat	-13.0352
▁pollination	-13.0352
▁flame	-13.0352
▁1981	-13.0352
▁resign	-13.0352
▁1953	-13.0352
▁Durga	-13.0352
▁Dhara	-13.0352
darin	-13.0352
▁nanoscale	-13.0352
▁Atkins	-13.0352
▁blueprint	-13.0353
▁McG	-13.0353
▁1977	-13.0353
▁Greenville	-13.0353
uja	-13.0353
▁fridge	-13.0353
▁1963	-13.0353
▁Saint	-13.0353
▁pinpoint	-13.0353
▁heartbreak	-13.0353
irming	-13.0353
▁navigation	-13.0353
▁Sachs	-13.0354
litary	-13.0354
▁Solar	-13.0354
▁forgiveness	-13.0354
▁Verme	-13.0354
▁blade	-13.0354
▁Mind	-13.0355
tiba	-13.0355
▁Darwinian	-13.0355
razo	-13.0355
▁indication	-13.0355
▁flatten	-13.0355
▁Schul	-13.0355
hreddi	-13.0356
▁cynic	-13.0356
▁payoff	-13.0356
▁1,5	-13.0356
▁spam	-13.0357
▁Dust	-13.0357
borough	-13.0357
▁clash	-13.0357
▁Umar	-13.0358
▁Smithson	-13.0358
▁Cooki	-13.0358
▁conductor	-13.0359
▁Thatcher	-13.0359
▁merc	-13.0359
▁Ground	-13.036
▁Atala	-13.036
▁roughness	-13.0361
▁Watt	-13.0361
▁Tiger	-13.0362
▁Hacker	-13.0362
▁dốt	-13.0362
▁aggregate	-13.0363
▁tailor	-13.0363
▁extraction	-13.0363
▁enthusiastic	-13.0364
▁disk	-13.0364
▁spaceship	-13.0364
▁Mmm	-13.0365
▁Smart	-13.0365
▁Earle	-13.0365
▁Persian	-13.0365
rink	-13.0365
▁graceful	-13.0366
▁Gell	-13.0367
▁tourist	-13.0367
blanc	-13.0367
▁converge	-13.0368
▁Claus	-13.037
▁Player	-13.0371
▁booth	-13.0372
▁Fold	-13.0373
▁correction	-13.0374
▁Porter	-13.0375
hili	-13.0376
party	-13.0378
mostat	-13.0381
idan	-13.0383
▁Flore	-13.0384
ailed	-13.0384
▁bugg	-13.0385
▁Champ	-13.0386
▁Mohamed	-13.0387
▁Kerry	-13.0392
▁respectful	-13.0394
▁mania	-13.0395
▁clapp	-13.0396
▁ươ	-13.0397
pathetic	-13.0401
urich	-13.0404
▁thro	-13.0404
▁badge	-13.0404
▁Daily	-13.0405
▁Arno	-13.0406
▁bait	-13.0409
▁sane	-13.0409
▁knit	-13.0411
▁gland	-13.0415
▁whistl	-13.0418
hatred	-13.042
▁subsid	-13.042
90	-13.0421
-10	-13.0421
▁Short	-13.0422
▁partially	-13.0428
▁Canal	-13.0429
▁Golden	-13.0432
▁Near	-13.0434
rail	-13.0437
▁funder	-13.0438
▁Chap	-13.0439
▁Denis	-13.0439
ogical	-13.0443
▁blessing	-13.045
▁Antoni	-13.045
▁Beyon	-13.0454
▁crisp	-13.0455
▁buyer	-13.0458
▁nọc	-13.0469
lera	-13.0469
▁redefin	-13.0478
▁bợ	-13.0484
▁trail	-13.0485
▁certifi	-13.0486
▁populat	-13.0491
▁locomoti	-13.0492
▁lag	-13.0493
▁defender	-13.0494
▁Quyế	-13.0495
37	-13.0498
▁Paol	-13.05
▁73	-13.0504
agne	-13.0506
▁dispers	-13.0509
hemo	-13.0511
▁marking	-13.0514
▁pup	-13.0515
▁Siri	-13.0519
▁undermine	-13.0523
▁Lesl	-13.0523
addy	-13.0532
▁fled	-13.0535
▁bíp	-13.0535
▁bureaucrat	-13.0536
▁vascular	-13.0536
▁SM	-13.054
▁gân	-13.055
▁introverts	-13.0554
,8	-13.0554
▁horn	-13.0558
▁79	-13.0558
▁functionalit	-13.0574
▁Olde	-13.0581
▁Marine	-13.0585
4,000	-13.0587
▁fisher	-13.0588
ouch	-13.0588
▁protester	-13.0591
▁Conne	-13.0594
▁digitiz	-13.0609
guar	-13.0616
ingdom	-13.0631
▁Kamen	-13.0635
ourne	-13.0638
▁187	-13.0643
▁Hart	-13.0646
axe	-13.065
▁Thor	-13.0658
▁Lead	-13.0659
▁incarcerat	-13.0662
▁spine	-13.0665
▁unto	-13.0665
▁Atten	-13.0678
rrow	-13.0689
bster	-13.0697
▁McKe	-13.0705
ende	-13.0705
ragg	-13.0706
▁handl	-13.071
▁Genom	-13.0712
iller	-13.0718
ML	-13.0721
▁lì	-13.0733
▁requir	-13.0735
42	-13.0736
chai	-13.0738
eman	-13.0742
uz	-13.0751
ection	-13.0755
void	-13.0757
▁Rag	-13.0764
wak	-13.0765
▁reproducti	-13.0771
▁186	-13.0772
▁emit	-13.0773
action	-13.0773
kov	-13.0778
etal	-13.0786
rim	-13.0788
▁Lá	-13.0791
▁relie	-13.0798
▁survivor	-13.08
▁drawer	-13.0816
▁Sally	-13.0817
mount	-13.0823
▁1,2	-13.0826
▁Joa	-13.0827
▁sò	-13.0839
cycle	-13.0848
ứng	-13.0848
unus	-13.0858
leton	-13.0865
you	-13.0871
▁characterize	-13.0871
fal	-13.0871
▁51	-13.0877
activat	-13.0882
▁Senat	-13.0882
isel	-13.0901
eight	-13.0902
cock	-13.0903
▁reimagine	-13.0904
▁vơ	-13.0907
▁sq	-13.0911
pleasant	-13.0912
quarter	-13.0912
perform	-13.0913
balance	-13.0913
design	-13.0913
develop	-13.0913
▁Genev	-13.0913
model	-13.0913
virus	-13.0914
usk	-13.0927
▁Clo	-13.0927
TH	-13.0928
▁destin	-13.093
▁disabilit	-13.0931
▁Environment	-13.0934
▁Harri	-13.0936
▁degrade	-13.0938
▁loá	-13.0947
niz	-13.0952
▁uncertain	-13.0955
mel	-13.0955
gaa	-13.0955
▁rabbi	-13.0955
40	-13.0958
istry	-13.0959
▁Westerner	-13.0964
▁Michoac	-13.0967
môn	-13.0968
Hub	-13.0969
▁accord	-13.0972
▁merit	-13.0972
▁ngơ	-13.0982
ré	-13.0982
▁Christin	-13.0983
▁Scra	-13.0986
▁tuôn	-13.0988
atri	-13.099
▁Templ	-13.0995
ease	-13.0995
▁Ethe	-13.0998
▁intentional	-13.0999
▁AI	-13.1001
▁Heid	-13.1001
▁Rid	-13.1003
eger	-13.1003
emost	-13.1007
▁numer	-13.1008
▁hobby	-13.1012
▁sữ	-13.1015
▁Beck	-13.1015
▁hằn	-13.1016
▁synthesi	-13.1018
nspired	-13.1018
▁Virgin	-13.1018
▁anonym	-13.1018
utheast	-13.1018
▁misunderst	-13.1018
▁Improv	-13.1018
▁imprison	-13.1018
▁reperto	-13.1018
Script	-13.1018
illuminate	-13.1018
▁Adventist	-13.1018
▁Awesome	-13.1018
▁Certain	-13.1018
▁Exact	-13.1018
▁Malthus	-13.1018
▁Morning	-13.1018
▁Palextin	-13.1018
▁Pimp	-13.1018
▁Rouge	-13.1018
▁Thursday	-13.1018
▁Whirlwind	-13.1018
▁algebra	-13.1018
▁antidote	-13.1018
▁catalyst	-13.1018
▁contemplati	-13.1018
▁craving	-13.1018
▁delicate	-13.1018
▁eager	-13.1018
▁embryo	-13.1018
▁epiphan	-13.1018
▁exhilarating	-13.1018
▁holistic	-13.1018
▁inferior	-13.1018
▁laureate	-13.1018
▁leisure	-13.1018
▁module	-13.1018
▁participator	-13.1018
▁pavilion	-13.1018
▁picnic	-13.1018
▁plaster	-13.1018
▁plunge	-13.1018
▁prompt	-13.1018
▁qú	-13.1018
▁reunion	-13.1018
▁serendipit	-13.1018
▁sprawl	-13.1018
▁strive	-13.1018
▁substitute	-13.1018
▁suspens	-13.1018
▁turbulen	-13.1018
▁unheal	-13.1018
▁0.2	-13.1018
▁Bolivia	-13.1018
▁Ptolem	-13.1018
▁altruist	-13.1018
▁harsh	-13.1018
▁hazard	-13.1018
▁intractable	-13.1018
▁pragmati	-13.1018
▁Shame	-13.1018
▁caffein	-13.1018
▁gossip	-13.1018
▁verify	-13.1018
▁Toxo	-13.1018
▁nhoáng	-13.1018
▁Ahmad	-13.1018
▁Volta	-13.1018
▁equator	-13.1018
▁fission	-13.1018
▁histories	-13.1018
▁waist	-13.1018
▁Harbor	-13.1018
▁Cesar	-13.1018
▁flour	-13.1018
▁moderate	-13.1019
▁Strange	-13.1019
▁enrich	-13.1019
▁Taiwan	-13.1019
▁refresh	-13.1019
▁worn	-13.1019
▁supplement	-13.1019
▁quantitative	-13.1019
profe	-13.1019
▁mourn	-13.1019
▁socket	-13.1019
▁Program	-13.1019
▁pillow	-13.1019
▁google	-13.1019
▁suburbia	-13.1019
▁allocate	-13.1019
▁Standard	-13.1019
▁Monster	-13.1019
▁appall	-13.1019
▁PET	-13.1019
▁recreation	-13.1019
▁committee	-13.1019
▁budd	-13.1019
▁vague	-13.1019
▁contradiction	-13.1019
▁tolerate	-13.1019
▁hoóc	-13.1019
▁skydiv	-13.102
▁Niels	-13.102
▁confession	-13.102
▁toolbox	-13.102
▁Opera	-13.102
▁ovari	-13.102
▁plumb	-13.102
▁royal	-13.102
▁constructive	-13.102
phobic	-13.102
▁Holland	-13.102
▁ngò	-13.1021
▁Normal	-13.1021
▁Damas	-13.1021
▁fluent	-13.1021
▁cautio	-13.1021
▁Fish	-13.1021
tyrann	-13.1022
▁nonviolence	-13.1022
libr	-13.1022
▁gigant	-13.1022
▁fatty	-13.1022
counterintuitive	-13.1022
▁Pool	-13.1023
▁inhabitant	-13.1023
adema	-13.1023
▁Curt	-13.1023
▁Orwell	-13.1023
▁lesion	-13.1024
▁Rena	-13.1024
▁acry	-13.1025
▁relational	-13.1025
▁seren	-13.1025
▁unthink	-13.1025
▁Choice	-13.1025
▁rejection	-13.1025
▁10000	-13.1025
▁cult	-13.1026
▁liar	-13.1026
Hz	-13.1026
▁Astro	-13.1027
▁youngster	-13.1027
▁dragon	-13.1027
▁placebo	-13.1028
▁rigg	-13.1028
ntosh	-13.1029
▁Diver	-13.1029
▁pac	-13.1029
▁keen	-13.1029
▁revolv	-13.103
▁reluctant	-13.103
▁conceivabl	-13.103
▁cheek	-13.1031
▁meaningless	-13.1032
▁Arr	-13.1032
▁delightful	-13.1033
▁apprentice	-13.1034
Foot	-13.1034
▁Face	-13.1036
▁Crime	-13.1036
▁supplier	-13.1037
▁Reader	-13.1037
▁Plu	-13.1038
lear	-13.1038
yaw	-13.1042
▁puzzl	-13.1042
▁doom	-13.1044
▁Bike	-13.1044
▁Patient	-13.1045
▁Maker	-13.1046
▁multitask	-13.1046
▁Demo	-13.1049
▁serial	-13.105
▁Buck	-13.105
▁carrier	-13.1052
▁accountant	-13.1053
▁naught	-13.1055
▁hostilit	-13.1056
▁attain	-13.1057
▁empathiz	-13.1057
,700	-13.1057
▁antique	-13.1058
▁Barne	-13.1059
racor	-13.1059
▁lith	-13.1059
▁destructive	-13.1062
lma	-13.1065
▁hót	-13.1066
▁DC	-13.1066
▁inspect	-13.1067
▁spec	-13.107
▁replicat	-13.1072
cene	-13.1074
▁rider	-13.1075
scape	-13.1076
▁Jamaican	-13.1082
▁thou	-13.1083
▁rabbit	-13.1084
▁murderer	-13.1087
ehind	-13.1088
▁Chì	-13.1089
▁cymatics	-13.109
▁Run	-13.1092
post	-13.1093
▁Environmental	-13.1104
▁mimick	-13.1105
▁Citi	-13.1106
tury	-13.1107
▁awaken	-13.1108
ompassion	-13.1113
▁TM	-13.1113
▁Eighty	-13.1114
▁Lip	-13.1115
▁Erin	-13.1116
▁vest	-13.1117
▁SK	-13.1122
▁casualt	-13.1124
▁Cú	-13.1144
▁bake	-13.1145
shak	-13.1145
▁swimmer	-13.1151
▁bark	-13.1156
▁marketer	-13.1157
▁sober	-13.1174
orous	-13.118
▁Made	-13.1181
tract	-13.1181
▁invade	-13.1181
▁marked	-13.1189
974	-13.1195
▁illustrat	-13.1197
▁canop	-13.1198
SE	-13.1208
ublin	-13.121
hore	-13.1211
3,000	-13.1216
▁facilitate	-13.1232
▁Forty	-13.1238
tense	-13.1242
▁organizer	-13.1243
2.000	-13.1244
▁Usa	-13.1247
▁gentl	-13.1248
▁Dari	-13.125
▁thiển	-13.1259
▁dock	-13.1263
under	-13.1269
arcelo	-13.1271
annon	-13.1279
▁tickle	-13.1289
▁lend	-13.1296
terior	-13.1297
10	-13.13
▁Kur	-13.1329
▁psychiatri	-13.133
▁Arch	-13.1335
▁cub	-13.1362
▁Alai	-13.1362
▁dogma	-13.1368
agh	-13.1372
▁intra	-13.1379
ulling	-13.1385
▁Seli	-13.1391
▁Vượ	-13.1392
▁mast	-13.1396
▁Seng	-13.1399
▁gravel	-13.1403
▁sandwiche	-13.1415
▁racial	-13.1417
ova	-13.1419
▁sụn	-13.1422
aries	-13.1422
▁wrinkle	-13.1426
▁7000	-13.1434
▁FE	-13.1436
▁miniatur	-13.1443
▁Marcel	-13.1474
parate	-13.1476
▁Famil	-13.148
▁wav	-13.1483
iker	-13.1488
grat	-13.15
▁introvert	-13.1505
▁insula	-13.1508
67	-13.152
▁dissolve	-13.1521
▁flee	-13.1534
▁conserve	-13.154
▁Hug	-13.154
▁fog	-13.1559
gawa	-13.1563
66	-13.1569
▁Compare	-13.1571
lose	-13.1572
▁continual	-13.1578
▁Geo	-13.1587
▁expo	-13.1602
argon	-13.1606
▁systemic	-13.1607
26	-13.1613
▁neurologic	-13.1619
▁Ventur	-13.1623
organiz	-13.1623
game	-13.1624
proof	-13.1625
machine	-13.1627
birth	-13.1627
familiar	-13.1627
white	-13.1627
material	-13.1627
pattern	-13.1627
infect	-13.1628
catch	-13.1629
cliff	-13.1631
change	-13.1635
count	-13.1637
same	-13.1638
shot	-13.1646
▁purchas	-13.1648
omed	-13.1651
motivat	-13.1654
burn	-13.1659
▁Locke	-13.1663
▁activis	-13.1669
▁cultivat	-13.1672
▁blur	-13.1677
▁Angelin	-13.1683
84	-13.1685
▁Beij	-13.1686
▁separat	-13.1692
▁dominan	-13.1698
touch	-13.17
▁exp	-13.1712
arvin	-13.1713
rosion	-13.1716
▁hù	-13.1717
omorrow	-13.1723
▁Palestin	-13.1723
rief	-13.1726
▁circu	-13.173
cientific	-13.173
▁bioluminescen	-13.1731
▁compass	-13.1731
vaccin	-13.1732
▁Secret	-13.1732
nnovation	-13.1732
▁irrigati	-13.1733
▁choreograph	-13.1733
▁diffuse	-13.1733
▁perceptual	-13.1733
▁singular	-13.1733
percussion	-13.1733
▁Challenge	-13.1733
▁DARw	-13.1733
▁Engineer	-13.1733
▁Eskimo	-13.1733
▁Fantastic	-13.1733
▁Fifteen	-13.1733
▁Frankenstein	-13.1733
▁Maasai	-13.1733
▁Magazine	-13.1733
▁Morris	-13.1733
▁NRK	-13.1733
▁Network	-13.1733
▁PSA	-13.1733
▁Parik	-13.1733
▁ROV	-13.1733
▁Shephela	-13.1733
▁Solomon	-13.1733
▁ambassador	-13.1733
▁amputee	-13.1733
▁assault	-13.1733
▁bottleneck	-13.1733
▁bundle	-13.1733
▁chậu	-13.1733
▁daunting	-13.1733
▁decisive	-13.1733
▁diminish	-13.1733
▁discourag	-13.1733
▁doctrine	-13.1733
▁elusive	-13.1733
▁embroider	-13.1733
▁exaggerate	-13.1733
▁facade	-13.1733
▁fragrance	-13.1733
▁gadget	-13.1733
▁gelatin	-13.1733
▁homosexual	-13.1733
▁humid	-13.1733
▁lettuce	-13.1733
▁outweigh	-13.1733
▁plummet	-13.1733
▁rainbow	-13.1733
▁reassure	-13.1733
▁rectangle	-13.1733
▁rẫy	-13.1733
▁sapien	-13.1733
▁snack	-13.1733
▁soprano	-13.1733
▁stakeholder	-13.1733
▁superhero	-13.1733
▁taxpayer	-13.1733
▁vaccination	-13.1733
▁Search	-13.1733
▁cliche	-13.1733
▁coalition	-13.1733
▁ingenious	-13.1733
▁Grove	-13.1733
▁condemn	-13.1733
▁forensic	-13.1733
▁knob	-13.1733
terdam	-13.1733
▁Albania	-13.1733
▁Tamil	-13.1733
▁antiretroviral	-13.1733
▁shipyard	-13.1733
▁tweak	-13.1733
▁Socrate	-13.1733
entagon	-13.1733
▁conceive	-13.1733
▁hippie	-13.1733
Colomb	-13.1733
▁mangrove	-13.1733
▁ribbon	-13.1733
▁Meadow	-13.1733
▁crave	-13.1733
▁milimet	-13.1733
▁Namibia	-13.1733
▁landmine	-13.1733
▁paranoi	-13.1733
▁Hamburg	-13.1733
▁latter	-13.1733
▁99.9	-13.1733
▁Puer	-13.1733
▁juni	-13.1733
▁prôt	-13.1733
▁burger	-13.1733
▁rodent	-13.1733
▁patron	-13.1733
▁đùi	-13.1733
▁championship	-13.1733
▁dictatorship	-13.1733
▁stripped	-13.1733
▁Vishn	-13.1733
▁Manju	-13.1733
▁mockingbird	-13.1733
▁Galen	-13.1733
▁telecom	-13.1734
▁1910	-13.1734
▁1926	-13.1734
▁iteration	-13.1734
▁OMG	-13.1734
▁Capit	-13.1734
▁preview	-13.1734
▁terminal	-13.1734
▁ESP	-13.1734
▁Shap	-13.1734
▁0.5	-13.1734
▁instructor	-13.1734
ildes	-13.1734
▁diesel	-13.1734
▁slot	-13.1734
▁microblogg	-13.1734
▁pedal	-13.1734
▁Raise	-13.1734
▁Nauy	-13.1735
▁devastation	-13.1735
▁Patent	-13.1735
▁Prison	-13.1735
▁dissection	-13.1735
▁disagreement	-13.1735
incent	-13.1735
▁Quixote	-13.1735
▁Summer	-13.1735
▁Writ	-13.1735
almon	-13.1736
mja	-13.1736
▁latitude	-13.1736
▁Milan	-13.1736
▁slime	-13.1736
▁quirk	-13.1737
▁Benoi	-13.1737
▁Giacom	-13.1737
▁lbs	-13.1737
▁mandate	-13.1737
▁Stephan	-13.1737
▁browse	-13.1737
▁livelihood	-13.1737
▁grill	-13.1738
▁Babb	-13.1738
▁Theodor	-13.1738
▁Image	-13.1738
▁Prospera	-13.1738
▁aisle	-13.1738
▁variant	-13.1738
▁backpack	-13.1738
▁sword	-13.1739
▁baseline	-13.1739
▁Pug	-13.174
▁fond	-13.1741
▁restriction	-13.1741
▁foresee	-13.1742
Bird	-13.1742
▁partial	-13.1742
▁FM	-13.1742
▁Johannes	-13.1742
▁glid	-13.1743
parent	-13.1743
▁advancement	-13.1744
▁obs	-13.1744
▁blast	-13.1744
▁Raja	-13.1745
▁Leave	-13.1747
tenance	-13.1749
▁Loren	-13.1749
rillo	-13.1749
obal	-13.1749
▁reset	-13.175
▁recurren	-13.1752
llusion	-13.1752
▁judg	-13.1752
▁1600	-13.1753
unker	-13.1753
▁LM	-13.1753
rusha	-13.1753
▁Calcu	-13.1754
▁fearless	-13.1754
▁Boe	-13.1754
▁Tata	-13.1756
▁Grave	-13.1758
▁Sỹ	-13.176
▁treasure	-13.176
▁Bund	-13.1762
▁instrumental	-13.1762
▁Torre	-13.1762
▁cel	-13.1763
▁recorder	-13.1765
▁Aspe	-13.1768
▁Kerm	-13.1769
▁Block	-13.1772
▁uprising	-13.1774
▁Ghr	-13.1776
▁Nina	-13.1776
.3	-13.1777
▁boyfriend	-13.1778
▁pale	-13.1782
▁Luca	-13.1787
raging	-13.1788
▁legendar	-13.1795
▁Lance	-13.1797
▁amuse	-13.1801
▁Architectur	-13.1802
haul	-13.1805
▁charter	-13.1806
eduction	-13.1808
▁dug	-13.1809
▁Laura	-13.1809
▁Musta	-13.181
▁photographic	-13.1811
▁Cave	-13.1817
ovic	-13.1821
▁meritocra	-13.1821
▁TE	-13.1827
abasc	-13.1829
esert	-13.1829
▁CB	-13.1832
▁ró	-13.1833
▁canoe	-13.1834
▁gum	-13.1835
▁thuyên	-13.1835
▁Brah	-13.1836
▁neon	-13.1839
cheri	-13.1842
▁Hor	-13.1843
▁Cultur	-13.1845
▁alarming	-13.1846
▁blended	-13.1854
▁handwrit	-13.1859
▁ramp	-13.186
▁bathe	-13.1861
▁Chev	-13.1866
EC	-13.1867
andon	-13.1868
▁Nak	-13.187
▁Webb	-13.1871
reek	-13.1874
atur	-13.1876
▁Wind	-13.1876
iển	-13.1878
ella	-13.188
EG	-13.1883
▁invasive	-13.1889
▁reache	-13.1891
▁Wad	-13.1896
assa	-13.1901
▁DD	-13.1908
▁Hara	-13.191
[...]
